/**
  ******************************************************************************
  * @file    network_data_params.c
  * @author  AST Embedded Analytics Research Platform
  * @date    Sun Jun 30 18:34:38 2024
  * @brief   AI Tool Automatic Code Generator for Embedded NN computing
  ******************************************************************************
  * Copyright (c) 2024 STMicroelectronics.
  * All rights reserved.
  *
  * This software is licensed under terms that can be found in the LICENSE file
  * in the root directory of this software component.
  * If no LICENSE file comes with this software, it is provided AS-IS.
  ******************************************************************************
  */

#include "network_data_params.h"


/**  Activations Section  ****************************************************/
ai_handle g_network_activations_table[1 + 2] = {
  AI_HANDLE_PTR(AI_MAGIC_MARKER),
  AI_HANDLE_PTR(NULL),
  AI_HANDLE_PTR(AI_MAGIC_MARKER),
};




/**  Weights Section  ********************************************************/
AI_ALIGNED(32)
const ai_u64 s_network_weights_array_u64[4409] = {
  0x3fc8352bbfed8fa4U, 0xc08373743e780f89U, 0xbd2ce73f407694e9U, 0x3fbf51d0bfacb98eU,
  0x3ff78f7a3c54d6acU, 0x3f9a0313408896d7U, 0xc0275574c00f8543U, 0x3e8b9958bfb72f52U,
  0x3e5bf3a3bfab3604U, 0x3f807e1c3f8fde9aU, 0x3fed92a4bfd19631U, 0xc0901809401e1a88U,
  0x3f90b0ef3f392879U, 0x3f68c9a5c00546a4U, 0x3edae30e3f9029f7U, 0x3fcc5aca3f91acbdU,
  0xbfdfe1443f0ec6aeU, 0xbf9f38e7c03066d5U, 0xc0548acc3e5d3d71U, 0x3f7ab0a4403764c2U,
  0x40dc4e8dc0fa8f2bU, 0xc0154db83e71585eU, 0x3ddd292b3ff26086U, 0xbca646f7c0758b23U,
  0x410839b7bd7ac6c9U, 0x3d4ea7c93dc06743U, 0xbd214582c0a32338U, 0xbf2b1e33bddcbae3U,
  0xbe3510f03bbac58dU, 0xbd68ec51bf8c40ceU, 0xbeefeb99bdafcb8aU, 0x3f41c7973c65a0dbU,
  0x3f08434ac0040cfaU, 0xbd797a0cbe96680bU, 0xbec201d8be4fd19dU, 0xbe5129dc3f9c8910U,
  0x4009ea1c401fc517U, 0x402de8123d21ad66U, 0x402056323f65da71U, 0x3e9cda7640064064U,
  0x3d85c52eba812128U, 0xbd6afcd8bd828301U, 0xbea40f0c3fca6539U, 0x3da6d6003cf83ccfU,
  0x3d79c799bd08d4bcU, 0x3d0183fb3d8ed20aU, 0xc05dea693bba0eb0U, 0x3d8605313dfd2bc9U,
  0x3d2038c23e08b071U, 0xbeb31e6a3dd53939U, 0x3f890100bd986bc9U, 0x3de9de13bf69ceb7U,
  0xbec8d27a3dae1a2eU, 0x3e99a738bdba7057U, 0x3ea99469400d7af0U, 0x3dda0c21bed5de5aU,
  0x3d6712a0bea6f3a1U, 0x3c896d9abd2d8ff0U, 0xbf17a57b3e3f13c9U, 0x4044faf5bdb6d51eU,
  0xbd1d3105c00b8045U, 0xbec9234e3e5e1114U, 0xbb50229b3d0692b5U, 0x3cbca5d53be17a93U,
  0x3fd112a3bc19b46aU, 0x39a9779b3c1a3caaU, 0x3ba19fa73d0cbd27U, 0xbe698cce3ed3e55dU,
  0xc0b90380bea95c8eU, 0x40d0cd90bf45df82U, 0xbf058da93f4660abU, 0x404001e5bea63907U,
  0x3fe38d7f40348b41U, 0xc11eb6af406420b9U, 0x404153bf4055ae79U, 0x40478b2cc100dca7U,
  0x40d550bfc0511200U, 0xc0aa361a3e1d1027U, 0xc0861c4bbe652042U, 0x3e8e1f7d3ef4cac4U,
  0xbb4b8dd6bd85e195U, 0xbda269a9bde2ef2bU, 0x3db278eebd3bccc8U, 0xbc4f2f27bea5a07cU,
  0x3f1ca3743df1bb44U, 0x3f564b1abd020bddU, 0xbd87229b3d8357e1U, 0xbe7a14c8bd5df703U,
  0xbcb44b1a3e98b5ccU, 0xbe10ddc9bdb6517dU, 0x3de9783bbe282408U, 0xbe05f5733e6148e6U,
  0xbe7e24293ca40cd6U, 0xbe2fad3c3d9847a4U, 0xbe266d273d183ca9U, 0x3df924a03d2fef2eU,
  0x3b037cf83f74eedbU, 0xbdc466c0bef1c2afU, 0x3bcf45373e58f3f3U, 0xbecea2c7bf7cda01U,
  0xbe55a13e3c551f6dU, 0x3e6c2f703ca52ba7U, 0xbf4ddbc23c9bb52bU, 0x3d871a66bc3690f7U,
  0xbdf5aaaa3f06c367U, 0x3cbf540a3f00b15cU, 0xbdf612063eeb9f58U, 0x3c8ce926392035e5U,
  0xbd1bed7bbf8f7276U, 0xbbb83abdbf4d8273U, 0x3d59f2c9bf5a7774U, 0x3d2cdce43e9f5f0aU,
  0xbf2c43fd3e68f6adU, 0x3e0f07b83cbe24b7U, 0x3d54a9a73ef003e2U, 0x3ed8ec49be8a431cU,
  0xbf3f27dbbf44759cU, 0xbf67e6993e46cc7cU, 0xbbe3b443bee8a279U, 0xbd0ac233bc2ddd0bU,
  0xbdfc780ebfad54fdU, 0x3d2ca1ac3f8242ceU, 0x3e891a9ebf046bccU, 0x3e64263cbbcdc99dU,
  0xbc3c1ffd3cbf2949U, 0x3e3665f53d0fbf92U, 0xbcf05bcf3cd9de64U, 0x3accf308bd052035U,
  0xbf7d5821bfc5f67cU, 0xbe1c8b6dbec22535U, 0x3ff5837a3f1eec95U, 0xbf135f98bf244a38U,
  0xbe7c4591bd519e86U, 0x3b81a0f3bd91bca2U, 0x3db72986bd906b34U, 0xbf0899e1bf780d1aU,
  0xbe50313fbc8d03f4U, 0xbc7f4cd6bdb95aa5U, 0x3d4011d1bd5eddf9U, 0xbec060b9bf3afbe7U,
  0x3e6cee76407a9e5aU, 0xbeba5e893edcee75U, 0x3f0c324ec00607c4U, 0xbe13a3a33da9a8a8U,
  0xbee54db5c0038172U, 0x3df4d707be2ff004U, 0x3e33d16a3f87d395U, 0x3e58908cbd4c5291U,
  0x3f418c373ebce780U, 0xbe33b270be49c91cU, 0xc00fa92bbf081742U, 0x3e92cc6b3f3d10e6U,
  0x3e2de3093f0045fdU, 0xbd221630bdb303ebU, 0xbc1dd3b8be2ad7bfU, 0x3f5b8f7dbce32790U,
  0xbc5bf5b93e5bb9cfU, 0x3c99e70dbe5f62c2U, 0xbc77ca44be286ab1U, 0x3e6a38c93dae74a3U,
  0x3f378edbbf7dad12U, 0xbe8dc8853a102da9U, 0xbf04f14a3f0e6568U, 0x3e53d1223cfa8bf6U,
  0xbe984e333f934bd9U, 0x3e160817bf6949fbU, 0xbd8a58cc3eee8886U, 0xbe31112abd8cab5dU,
  0x3e3c13f140073665U, 0xbe38aaf13e501cf9U, 0x3ef48268bee917b9U, 0xbe610e9e3e35a74bU,
  0xbf19a3e8bf60936aU, 0xbe62a49f3f2849a1U, 0xbe035bce3f0e76d5U, 0xbf65c955beb0f26bU,
  0x400b5b653f6c8bf3U, 0xbdf6a2acbcc5a9cfU, 0xc06556d4be99c75dU, 0x3ea177e7bf273289U,
  0xbf9e69b3be4bc737U, 0x3d4f63953e3fb8a0U, 0x401929be3e6aa450U, 0x3ded49153e5cc9bbU,
  0xbefeefed3dec02e1U, 0xbd854848beb55732U, 0x3f0807a0be2aeffdU, 0xbd3fb9f5be947a69U,
  0xbe49f89f3f02aae7U, 0xbe4ec4b3be56d6d8U, 0x3ec6e106be8015adU, 0xbe4940dc3fdbe30aU,
  0x3eeb02eabe031885U, 0xc027697cbdb46faeU, 0x3f3d202fbe8333cbU, 0xbe3e699fbdb2ca84U,
  0xbe86f1acbf3e1db0U, 0x3def93393f2d510fU, 0x3f7b9f5d3f048ab9U, 0xbf9049c7bd9af214U,
  0xbd31f5d2be024afcU, 0xbe2487823e38d86cU, 0x3d5aa996bddfe45dU, 0xbed5a624bf2c64c3U,
  0xbc6a54fa3dea2811U, 0x3e60530c3b9e639fU, 0xbcafc0d0bcf306e4U, 0x3d8410883dc1a2f9U,
  0xbd6635b63f7cf57fU, 0xbe0a9926bf72c76fU, 0xbe587ac63e8c3d2dU, 0x3d4b2fbf3dc2993cU,
  0x3eca0461bf0261dbU, 0x3f0981ea3eddb6f1U, 0x3db0e41a3e64b282U, 0xbfbdcff6c0082c11U,
  0x3e3061ae3ff2e1ddU, 0x3dc1cf69bfa907f7U, 0xbdb014423e4896dbU, 0x3ecdb3513dab56deU,
  0x3f26910abd013e9fU, 0xbfb67ec0beac74e7U, 0x3e8d936abeb16367U, 0xbd7e10c93d200687U,
  0x3da372813f310791U, 0xbd10e006bf1c5dfdU, 0x3e767760bf0aa2c5U, 0x3edab1253dd68947U,
  0xbea12a6bbfd707e1U, 0x3e7459e0be864cc5U, 0x3da695663f365175U, 0x3eda1490bd150e20U,
  0xbfc4b590bd8f51e5U, 0xbfc85f26be686563U, 0x3eb06becbdee0a60U, 0xbe665a70be768373U,
  0x3eb3f34d3ca66cdfU, 0x3e02444e3ef3f5cbU, 0xbeb3cd763e257a72U, 0x3e0249c33eca2a45U,
  0xbc81c513beedc7d8U, 0x3e910daabf3a3488U, 0xbe1e786cbc9daf20U, 0x3f1923513f10e3b0U,
  0xbfcba39abca4ff88U, 0xbfdc541f3d0e60f8U, 0x3e02fe7bbe05c099U, 0xbe86336abde30973U,
  0xbf2886703d7dabe8U, 0xbf23f6cf3acbd8ddU, 0x3d4439fa3d19b390U, 0xbe22b28c3ced8879U,
  0xbe8b301cbe402483U, 0xbf1080293e3f8148U, 0xbe9cbd223e3bf3ceU, 0x3ef305bb3f3b8b61U,
  0x3d89862fbf3ea2b4U, 0x3c7875b03e94fa96U, 0xbe051814bf2015eaU, 0x3f1654bc3e101178U,
  0x3e004c1ebf967925U, 0xbcfbfca03f91f2f1U, 0x3e0a69eabec45ccdU, 0x3e995b55bea170a2U,
  0x3ea85f39407ad1c0U, 0xbe52cb6ebddcfbd0U, 0x3f21d372c0185df1U, 0x3f040ee33cc595e4U,
  0x3cd3cec6bf1a338bU, 0x3ea627353f21b7deU, 0xbeece78b3efb8340U, 0x3f8196f33ebf6702U,
  0xbd9e1ab3bfbd28f8U, 0xb98745db3f4e5498U, 0x3e284e1dbf477d9fU, 0x3dbfdefcbe11174bU,
  0x3e98da5ebd3c8cc4U, 0xbe8b528e3f3184f4U, 0xbd8cf1593eba3932U, 0x3f1bab5f3fe9d05fU,
  0xbe22ac4b3fcd428fU, 0x3d6a9505bf771c5eU, 0x3e19f6f43f20e158U, 0xbd1305a83d08fc56U,
  0xc0023df4be5baf43U, 0xbe3fa3cf3ef4fc20U, 0x3d89e6363e90748aU, 0xbeaec96ebd3d8d5bU,
  0x3ee6a3b6bbbc3f34U, 0xbd24c2683ec9adbeU, 0xbeb520573e30851fU, 0x3d72f8163e665952U,
  0xbe8b55713e089212U, 0x401e5f72bd67fa5bU, 0xc02b35453c1727b4U, 0x3d626cc0bd1aaac9U,
  0xbea3a2383facac7eU, 0xbd7fa7a63ec868ecU, 0x3f921ccdbf2aea92U, 0x3c52648b3dc22b56U,
  0x3faedb123e186239U, 0x3f965957be598c87U, 0x3fba5a3c3d382e8aU, 0x3ef444223e6df546U,
  0x3e41ecc2bdc16d46U, 0xbe11aba73dac8414U, 0xbe74e41d3e1b8668U, 0x3ed8afe43f503a1fU,
  0x4063109440ca968bU, 0x4000470a3f839478U, 0x3ff528e3400391ebU, 0x40a88485c11be0ddU,
  0xbfc6eced4069002dU, 0x40481976befe9d5cU, 0xc0ca6885c01addecU, 0x4053bc6740931792U,
  0x3f616e24c03faaa9U, 0x40a7e054c0052091U, 0x40007af63d28c990U, 0xbfc404003dd1fc88U,
  0xc0aed937bf3bc222U, 0xbfbf899e4011a72eU, 0x40f07d52408282c4U, 0x3daa9d28bc76b100U,
  0x407c684b41009365U, 0x400b36784072190cU, 0xc12812a4406505eeU, 0x408408ef3f1e4dfcU,
  0xc08be524bf21eb7aU, 0x3ec25b1540aaf4c1U, 0xc0aaf6543ec324e1U, 0x3f8c75c8c127b461U,
  0x3eb20502bdeee306U, 0x3e01851c3ee37b12U, 0x3ec6d0d23eff7f59U, 0x3e5755d33e76f435U,
  0xbf3b4d66bddfdbbdU, 0xbd3bcb26bd0d7a60U, 0xbd1d5e6fbf913f4aU, 0xbf20425ebd9197a6U,
  0xbda6336a3dbc34ddU, 0x3f715f28c016d5c9U, 0x403df4c73fbbe1a6U, 0xc04154653de19167U,
  0x3e4f69f43e70057dU, 0x3e648cbfbdf1c2c4U, 0x3e45d8c23e84e974U, 0x3ee82d953e977785U,
  0x3db511b43e903ec1U, 0x3e24f3353e5fe285U, 0xbff08aa8bf9a91f1U, 0x3fb05f8cbf95cbcfU,
  0x3fa4444a3fe6de6bU, 0x3e222f7d3d2b1215U, 0x3e60531dbe731ab4U, 0x3eda462f3fb10849U,
  0xc076fb57c0073154U, 0x4007ed2ebfdc1f5eU, 0x3fa531784039e746U, 0xbe3d47eebe9db419U,
  0xbeeb1d24bd7fa9b0U, 0xbdf1efc0beb68652U, 0xbe25431cbe920a0fU, 0xbf791e23bde00634U,
  0xbe13c30a3dc60b76U, 0x3db96c5fbfbdc060U, 0xbf6315c0be1824d8U, 0xbc6ee506bc9b7480U,
  0x3e8ae31d3e1a53eeU, 0x3ea502873d711512U, 0x3d82ea0b3eadaad3U, 0x3dc4bbe63df1d27aU,
  0x3f964b7d3d194befU, 0x3f9f76ba3fdc1e1fU, 0x3fcd2bc23f851539U, 0x3db540db3f96aaf2U,
  0x3ecc2e453f444f5aU, 0x402b2a5b403f0edbU, 0x4032c8a0bec8de3aU, 0x3f464ad7406d5975U,
  0x3c8bfd233f363eebU, 0xbf769de8bf89e1fcU, 0xbf03ed553fb6922bU, 0x3fb094f1bf858cecU,
  0x3f968f87be9d49cbU, 0x3f86a8c3c0427c2fU, 0xbd1a12c7bd8332e7U, 0xbc06310fbf575ea2U,
  0xbfb7643dbea10d87U, 0xbdc48b033dea2059U, 0x3d48e2e3bf242d18U, 0x3c376f4abe3fecfbU,
  0xbeb967523c999655U, 0x3d0ff1e33c65a3d8U, 0xbb894f4fbe844015U, 0xbeb23714be4cc8c3U,
  0xbea2fd03be0507ddU, 0xbdc420debeabc31eU, 0xbddc0df1be241680U, 0xbe896e1cbd34f046U,
  0xbe58b4d3bede450dU, 0xbedc4487be95e37dU, 0xbe1ca2b8bddcc6ddU, 0xbc82fc42be4854b6U,
  0x3f2f274c3f120383U, 0x3f05599e3e77fceaU, 0x3e6c92013f3e7191U, 0x3e8557a73e085f16U,
  0xbff3d3973d4b06f4U, 0x400a491fbf409107U, 0x3fd0fdc3404ffeeaU, 0xbf681227c010fd0dU,
  0x3f0aff26be70681fU, 0x3e5d63d53d4e090aU, 0x3d94ecc73dd0fe30U, 0x3e10a8e83e7d6903U,
  0x3db3b51c3c9a14ebU, 0xbe4eaf443d8ebfb4U, 0xbddc4166bebb5580U, 0xbf0eefddbee7587aU,
  0xbe966465be2daca3U, 0xbd5e7a98bedd0f7eU, 0xbe9113fabcc458c6U, 0xbddb8021be22a29eU,
  0xbe602b03beb1c620U, 0xbda398fabd71adeeU, 0xc0b48ff6be0b1475U, 0xbfa3c9cb40d01821U,
  0xc0cd6cd540c13155U, 0x3e71f5b83f01a665U, 0x3f8bbbfcbf28e912U, 0x4117bf52c019db9eU,
  0x402def63c0c37940U, 0x40c32208c10200bdU, 0xbfeb06663f9f64adU, 0xbf56aa773fb62180U,
  0x3f6e96473e8dd0e7U, 0x3ed5666bbfb81b6cU, 0xbf6e692e3f7f6c92U, 0x3f068b8d3e6d146aU,
  0x3e97a3723e6750a2U, 0x3e73baee3d6cfb38U, 0x3dc98c983e745e85U, 0x3db1b9883da333fcU,
  0x3f3997863d9e5732U, 0x3e06f97c3f4c1c9aU, 0x3f88066f3f752838U, 0x3ea6d1623ea09f10U,
  0x3e3b05a63ef78d93U, 0x3e79b3323cf68540U, 0x3ee58c4c3e10eeacU, 0xbcbb569f3f0a681eU,
  0x3eaf79c23e9fa0d8U, 0xbf2b33b63db6fdbbU, 0xbe68bfc4bf34761dU, 0xbf459e96bf2e2c01U,
  0xbd0c3511beaadeb5U, 0xbd843c60be954bd0U, 0xbf7652f1bc5bebd8U, 0xbdad6293bcf7141dU,
  0xbe4a9404bfbb939eU, 0xbf814bb33d34caf0U, 0xbe194ed6bda62dd2U, 0xbdf2181ebe3fe49fU,
  0xbee2e3f6bee1018fU, 0xbea6bcc5be8e6206U, 0xbdf09bbabea45994U, 0xc080c78140138c17U,
  0xc0291fce3f7cc2faU, 0xbfaa15cb40961f61U, 0xbf5dc86f3f1220c5U, 0x3fa44e443f17c4dfU,
  0x3f4ba73d3ff32507U, 0x401117643fd2520dU, 0x3e8476443f233d10U, 0xbe8de4d33f0509b7U,
  0x3e79aa3a3df4bc00U, 0x3e9c30c63de7738dU, 0x3de082ae3eb55149U, 0x3e25fcad3e2a9ca9U,
  0x3f4e118bbb04d28bU, 0x3f8a1a743faa9d92U, 0x3d9e94113db27133U, 0xbf3ebadd3d4527ccU,
  0xbecc29b6bf709cc9U, 0x3ebf49813e858ef3U, 0x3eb861fe3d85f15eU, 0x3dd937573edae8fbU,
  0x3e80a44f3e88f222U, 0x3dd3074a3da3a984U, 0x3e56d2f93ec110b4U, 0x3eea428a3e50310aU,
  0x3dae21153e68fb8fU, 0x3d781ae03de7c353U, 0xbe723b273ffaef45U, 0x3f2d96e9be2d4dbdU,
  0xbd1130cb378d4ef6U, 0x3ed2182dc02bb685U, 0x3ede6f6b3e2dc794U, 0x3d73a9f73ed5a9b3U,
  0x3f1569a73f12eb08U, 0x3e5824d33dc8867fU, 0xbe00a1713e865269U, 0x3eae3afe3de2914aU,
  0x3ebc695c3e84bdeaU, 0x3eeebdc23f43af79U, 0x3ea1c41b3cc144bdU, 0x3dbdb0423e73b4d0U,
  0xbd77f21bbf0bde73U, 0xbf7e5538bb76fe65U, 0xbc193ed8bcc11088U, 0x3d543869beb6c79bU,
  0xbef9bd53bf23b27bU, 0xbccfa2b3bea1f1a4U, 0xbdc8d4663db6ddafU, 0x3f3023723ddd4eb9U,
  0xbdd9b1ef3e9b1966U, 0xbd44ca48bf0bc501U, 0xbf676f41be52b516U, 0xbd9d2839bd6b413aU,
  0xbc1f4489bee60091U, 0x3c9bfd353d929bbfU, 0x3eaf73a63c761345U, 0x3e27cc163ed7fc67U,
  0x3edf829f3ea91c31U, 0x3f976d493df4aa9eU, 0x3e5c1dd6bfadd4cbU, 0xc00a620040289b78U,
  0xc0574fcdbe58dc7cU, 0xbe6762d140319eb4U, 0xbe5be741be1f2930U, 0xbed3c1a2bd96bba5U,
  0xbe87e88bbef3ade4U, 0xbecb504abe8a032eU, 0x3e263981bdc7256bU, 0x3e854e883ecfebf6U,
  0x3f4b48973ee4c300U, 0x3ea955853ecd345fU, 0x3e48c2983e2c8fb8U, 0xbe5c29d8be2d8bdcU,
  0xbf18b62ebd699cbcU, 0xbe68d6ccbf2ccc0eU, 0xbf457f7bbee0b39aU, 0xc063d00abe64bca5U,
  0xbe27e5944078ade7U, 0xc0a018b1408d634bU, 0xbe8453073f161bfeU, 0xbc270fc13f5ab26eU,
  0x3fb2c8e93dfe4298U, 0xbdef1b88bf14c128U, 0xbeb36bcfbec0a6dfU, 0x401251a53f4ad088U,
  0xbfc768523e251d76U, 0x3e75bc823e2caca0U, 0x3eff79b63fa713c1U, 0x3fb607153fa1daadU,
  0xbfb9d7a53cc56b00U, 0x3edca0f43eba6777U, 0xbe2f563d3f817c13U, 0xbe01c9f4c006ec6eU,
  0x3df45c603eabcfb8U, 0x402103873f092f0dU, 0x3f4575c2400b8dc5U, 0x3f2ab352be8963ecU,
  0xbf8ec0283e8fcc62U, 0x3d954f1cbeacfd3cU, 0x3e087714be12da31U, 0x3f56fd3b3dbaf960U,
  0x3f425fea3e338f38U, 0x3ead7f1cbe8a5bc5U, 0xbd86c244bd9e2158U, 0xbebfcb403f841c62U,
  0x3f0eb3d93e8440b2U, 0x3ebd703fbe62a404U, 0xbca327b2bc371032U, 0x3d077f03bdd6bf7dU,
  0xbea9173f3ea3f6abU, 0xbe0ff6503b03f7f2U, 0x3d647a1f3d1c906cU, 0xbe8bf15ebe2a75acU,
  0xbdc2f4843acbd3a2U, 0x3d7cb3e33e2a71e5U, 0xbe114826be94ebf0U, 0x3d52f98fbe30a7f0U,
  0x3db8fd543d975234U, 0xbcd1afaf3e09866eU, 0x3d68c64f3d8fa24cU, 0x3dfee311be02b277U,
  0x3d552200bea986cfU, 0xbf2397c53f133e9eU, 0x3dc7147fbe07408bU, 0x3f1a0939bda9b825U,
  0x3d784ec5be123f16U, 0xbc6f31283d5b134dU, 0x3e3cd962bd9014ddU, 0xbe691fde3df4934dU,
  0xbe6cee533b441eb0U, 0x3e78faa83e2f7996U, 0xbd6cea53bd94a06aU, 0xbdf3dcfcbda0d1dcU,
  0xbe69302d3e5a2ed4U, 0x3e556f633eebebe8U, 0x3d86e2843dc250a4U, 0xbed488febe56789fU,
  0x3e51d8ee3f1b6501U, 0x3d1c3f4e3d8d6e3aU, 0x3e1e008cbeb1cfaaU, 0xbd98cd173e3f42e0U,
  0xbee77925be7efa27U, 0xbe85e998be31d257U, 0xbe908cefbda33f95U, 0xbe5528123e58a8cbU,
  0xbdfda559bd8f5c61U, 0x3d98a2cabe21cc90U, 0xbdd1715a3ccdf7bbU, 0xbe7889083ed8287fU,
  0x3e2048c0bd995f23U, 0x3e337966be9e3bc4U, 0x3e9ace9c3ec19fbfU, 0x3e7bd1623d68bd1cU,
  0xbddba96c3ea10544U, 0xbd9c3d8dbd9db593U, 0x3ee597193ed7301eU, 0x3e90e7d83e882e2fU,
  0xbd454a8dbdfc2e8bU, 0xbde4950ebc63b1eeU, 0x3e4d180abd336fe2U, 0x3dc285f63e7a42b2U,
  0xbe051139bdf5d726U, 0xbe8fd47d3e6c0cd7U, 0xbe3ee59fbe2e47baU, 0x3e7f0762be28565cU,
  0xbeb927aabebbe7c1U, 0x3d88ef453ee793daU, 0xbe82a3513e606d8dU, 0x3d8ac50dbe842a6fU,
  0x3eb1c122bf05b27cU, 0x3db79e383ece9519U, 0xbc585f96bcb8496aU, 0x3da02640bc465bc5U,
  0x3e845f313db88082U, 0xbe80c8863d4a3e00U, 0x3d6ffcf8bdaa8f66U, 0xbe2c2a4d3e551a16U,
  0xbd9fb1793e871e55U, 0xbd0572443d643750U, 0x3ed414ec3ec61eb5U, 0x3e0d21d03dc707b4U,
  0xbde2f445bdef2cf0U, 0x3e2060a53dd47ad2U, 0x3e1b77a0becded42U, 0x3db3b5f93e78ec2fU,
  0x3c4330e63d10aba5U, 0xbeb968e23e614effU, 0x3d8cfef5be94d0beU, 0x3e90cde83deee74bU,
  0xbdc5ae493cc2cfecU, 0x3d94c7803e37bc25U, 0xbe51742d3e136279U, 0xbd3c39e13c8b3578U,
  0x3e4d9e94bec2c70aU, 0xbec57744be51620eU, 0xbe0b3c123d7faa54U, 0xbe23c4883e5dee25U,
  0xbe9f9a5c3e3fd3e3U, 0xbd94debabebced5aU, 0x3df80613be4fe520U, 0x3e3cbfc3bd03f01aU,
  0x3ed6330a3ec41cb5U, 0xbed9cb53be88d354U, 0xbdd0f3ffbe0b0962U, 0xbe25266ebe606693U,
  0xbcd87df33d42f98aU, 0xbe100872bd734a04U, 0xbe722b79be9bc2d1U, 0x3f05fc763f20f99cU,
  0xbe2e38fdbed75fefU, 0x3eeb6f7dbeae8820U, 0xbe1b3c613e963f16U, 0x3cf47a28be304ee6U,
  0xbee7b383befb74d8U, 0x3f147943bd675d44U, 0x3e194347bde45905U, 0x3ea6bbecbe4affd8U,
  0xbe24c641bea6e21aU, 0xbfaaa29a3e844aaaU, 0x3e9bd043bd8fefd7U, 0x3f09efa13e13c4dbU,
  0xbdf60c843d717f85U, 0xbe8d57b3bdb642ceU, 0x3d05e3cb3ee51d0fU, 0xbe5012a03f6d6d08U,
  0x3e9966143eaf1783U, 0x3e86a9c7bee9eeedU, 0x3c8ad6903d219d3fU, 0x3e2712cfbd4034d4U,
  0xbe9749babee2e251U, 0xbe004100be959ec6U, 0x3dba66983e48529cU, 0x3e20fa363e5fd608U,
  0xbea2a3253e59607eU, 0x3f27fb5f3e64e8f9U, 0xbe85d735beba1725U, 0x3e790223be9a81f9U,
  0xbe06b0d83e345e3dU, 0x3eb5e75dbe405af1U, 0x3e1516e23e3ce1e6U, 0x3c37706dbe8e3173U,
  0xbbdfd738bb49feb5U, 0xbc267313be92de2bU, 0x3dbd78fbbd412bbcU, 0x3eb13ec4be089ab7U,
  0x3ed58f943d9d1660U, 0xbe6a11fabc933900U, 0x3e21ae973f21c6e5U, 0xbea8c4e73dd03c28U,
  0xbed014a9be2a6f5aU, 0xbe8c2eb43dbd35dcU, 0xbe5d7e6fbe7de1b6U, 0xbee5ad93bedf15f0U,
  0xbec370b5be55e5b2U, 0x3e7d4788bf2c3e50U, 0xbe8af6c6bea90e83U, 0x3f043abc3f142f40U,
  0x3d0b8d52bf36f797U, 0xbdf030f93de411dfU, 0x3ea81e383de72c70U, 0x3d96f1253ece5168U,
  0xbd18175fbd99070dU, 0x3ef1f74ebed4717aU, 0xbe57d58bbef855fcU, 0x3ed8b3c63e6abca3U,
  0xbea0dd413d8b4310U, 0x3e6da4c73efb67c5U, 0x3e6710ae3e064762U, 0xbef306a9bd754b72U,
  0xbeaf7206bd68d4f0U, 0x3dc83477be3e6294U, 0xbdf33edfbe7695a1U, 0x3eb4429cbd9808d3U,
  0x3dd9bfdc3efcbc85U, 0x3e8edf18bdf226cfU, 0x3dc6e2823dc69ef9U, 0x3d24dbc03d2898deU,
  0xbd3963513f097246U, 0xbddcf807bdc70301U, 0x3d08ff313eb5508cU, 0xbe017d0abdd40c81U,
  0xbd0957f2bea42b2cU, 0x3cc5e95abe30337eU, 0xbdedbbbbbc08850cU, 0xbe23ce56be18fad3U,
  0xbf4bdacc3eeaeb16U, 0x3c0bb1153de8ac4aU, 0x3f1d66a33c397c83U, 0x3dedc1f6bde4a056U,
  0x3e27bc26beed2a53U, 0xbe916f47bec43f27U, 0x3e349e45bddbdfc3U, 0x3e0817293e4ff672U,
  0x3ee48bc83e312cffU, 0xbda75bc8be59171aU, 0x3e52bea5be8d57e6U, 0xbe214ff53e82a17eU,
  0x3eaa14b3bfc31b91U, 0xbc4cfe93bfc422bfU, 0xbed6aac53f32e184U, 0x3d9f721e3fbfc564U,
  0x3db1a2e3bd42d6f4U, 0xbe84821e3d1c8cb8U, 0x3c09705bbe5ee95bU, 0x3e76e8bc3d9f116eU,
  0x3bd67d4a3f1711ffU, 0xbd3209b6bde3d577U, 0x3e9c791cbee6c36cU, 0x3dd12cc93f3fb1f8U,
  0x3ddb90ddbbaebcfdU, 0xbd11614abd430fa9U, 0x3db9b32dbd01b47eU, 0xbe0da445bd6958eeU,
  0xbebddbf53ea9cb40U, 0x3f08053fbee172c6U, 0xbe3323ffbf0f3271U, 0xbe15ba42bd3d56ebU,
  0xbf03370d3ead6bf3U, 0xbe011c243eb894afU, 0xbbeebc27bf7ff2eeU, 0x3e4aae4a3ece3d97U,
  0x3de803c1bcfe396cU, 0xbe5c022fbcdf3589U, 0xbc272c75be9984ccU, 0x3c82594dbd893f0dU,
  0xbd95ca5d3e40f68fU, 0x3dcd54cb3e07b8c8U, 0xbdd8d0c53efa0d76U, 0xbee80140bcd33e17U,
  0x3ea79d003e068700U, 0x3f9116c73e5b9e72U, 0xbd8a14d03e5dfb84U, 0x3e5482dbbd055b8fU,
  0x3df3a9c13de735cbU, 0xbe37447c3d90d97cU, 0x3f149bfb3e0b6fabU, 0xbdef290d3d60d3b5U,
  0x3e2ae2f83f658d80U, 0x3e503a59bd883dfcU, 0xbed6bf94bee8c381U, 0x3ef5d9753f7cb0f9U,
  0x3e1d6e8b396598c6U, 0xbda53703be2af97eU, 0x3e8dad493c0be850U, 0xbdfa60f43e30519cU,
  0xbe6a9fd0bdb8abf5U, 0x3f477571bf74e5ecU, 0x3e7ae241befb266cU, 0x3f0b373ebe15d384U,
  0xbeaf213abed56751U, 0x3e64125f3e829173U, 0xbf0a3b453df36de5U, 0x3d22b3babe24e4efU,
  0x3de2bb3c3e14020fU, 0x3e38637d3dfae95aU, 0x3ee40632be47d33cU, 0xbe1913b83d4a836bU,
  0xbea73c843d3d3df9U, 0x3c9da65c3c6be3e2U, 0xbe802d3fbe7d6687U, 0x3eaa0807bedf1289U,
  0x3e7321b7bf0ca5c0U, 0xbc509385bd96ad8bU, 0xbd52490f3f1c1757U, 0xbea4b6c2bf3b0eb7U,
  0x3e7678703ea8ed74U, 0xbece4056bea309e2U, 0x3edbbaa93e521537U, 0x3e02e4993eb1bdecU,
  0x3e941f6abe8e8f26U, 0x3db7059cbeac68bdU, 0xbd641becbc462e55U, 0xbe96d5153d7ba07aU,
  0xbd29403b3e562e96U, 0x3f465eb8bf0de9c8U, 0xbe734270bd1a59c9U, 0xbebdc472be7d4ad0U,
  0x3dc8a4433f1e3ba7U, 0x3e3b8edb3dc49d69U, 0x3d8a2743be87eaa3U, 0x3e6034c03f24d547U,
  0xbe98102c3e2cda35U, 0x3efca26fbea81608U, 0xbded33f73e40a324U, 0xbe794fc0bddab8d1U,
  0x3eb60be73e0e3644U, 0xbf3bb1963f75ef80U, 0xbe7315ae3e94e834U, 0xbf3b105a3e59ad47U,
  0xbe472db5bed6bf87U, 0x3ea522d4bf27c433U, 0x3e4bd35dbe2d065eU, 0x3f1eb1943c57a959U,
  0x3d21f4013e0a8006U, 0x3da788a13d92db40U, 0x3e404876be7aaee2U, 0xbd84d1023dfaa70fU,
  0xbb980e27bc6e27a6U, 0x3db44c71be188d40U, 0x3d0ae689bd3c079aU, 0x3da6ecf43d454262U,
  0xbdafd79c3e160cb8U, 0x3ec56920be72d4f8U, 0xbca7759a3e0bf374U, 0xbd6767f2bdd98621U,
  0x3dcd9bf3be98f567U, 0xbec077903f00d332U, 0x3dd80d6ebdd55493U, 0xbd3c99cd3e808d5cU,
  0x3eccc1bdbeac939cU, 0x3cc5bb9e3f2ad262U, 0xbd6fea453db56fa4U, 0x3d9d606a3ebab864U,
  0xbf72e52ebf09d269U, 0xbfa0132a3ecd5104U, 0x3d895780be34a19dU, 0xbe4b13fdbd66b81aU,
  0xbe4e6e4abe686381U, 0x3e885af1bd8b2ab0U, 0xbec1c4d4bd262fe5U, 0x3e0cb98bbc9d3a7fU,
  0x3dcde5bbbe83bc06U, 0xbd46de673e7b8fadU, 0x3d9237653d71c9c3U, 0x3d79ada43e02efcbU,
  0x3d9a5397bdab607fU, 0xbe4777633e02efdeU, 0x3cb86e98bd808e09U, 0x3db3fd843d433e3aU,
  0x3e072ff9bdec41bdU, 0xbe0d570e3e137afeU, 0xbc055db93b6f8a34U, 0x3e2642693c8f579aU,
  0x3f0335cb3c0f2dffU, 0x3e658579be7fd7f1U, 0x3d8c6b143dad2dcdU, 0xbe01045fbf0e218fU,
  0x3c856c253e73f09eU, 0xbe898ec23eb16471U, 0xbe812ee1be7202a0U, 0xbddc0a943dc5679aU,
  0xbc7501263eaf157dU, 0x3ecdb38c3e131e1dU, 0xbe7e58053ea5e06bU, 0xbee100303db39ba9U,
  0x3ee71eac3e1544fcU, 0xbf4250cd3f6cf8c5U, 0xbe1fd6dc3e29f2e5U, 0xbf4a66a83e9c091bU,
  0xbe69d27abe6b6c97U, 0x3e9d88e43ef18837U, 0xbf13f1fa3c8da479U, 0xbd680b9a3ed25c49U,
  0xbd064c943e9cbbdaU, 0x3e4074003e9d4a0cU, 0xbe1f4dcdbe11251bU, 0x3dc44dab3ee12e0fU,
  0xbebaf8063e60aff2U, 0x3cef26b4bde425bcU, 0x3d046ea2bf07e1e8U, 0x3e9a68053ea9c24aU,
  0x3e3211c0be2693e4U, 0x3f0fc548bf389170U, 0x3e7f8594be88d871U, 0x3f0d90fbbeddbfc2U,
  0xbd5354babe536f51U, 0xbc331bf3bde3da0eU, 0x3d0e7b713e899e86U, 0x3c97a94fbe37e885U,
  0x3e296700be5c2e2fU, 0xbd9e4da9bd7bcf2bU, 0x3dc31ac63eaccb1eU, 0xbdefcb82be935ee1U,
  0x3f247cd83f2ba99cU, 0x3f31d69cbe5e5fa3U, 0xbf083a7cbcff8f69U, 0x3ececf9b3ea6a33eU,
  0x3d223ec7bbf20429U, 0xbbb67cec3e782a86U, 0xbeb8e9253e090634U, 0xbdad36c63d2358aaU,
  0xbeb05666bd41743eU, 0x3ec40daa3f17ff2bU, 0xbdd75f04be21c520U, 0x3dad71e5bf0930fcU,
  0xbf01704d3e30274cU, 0x3e59cfc6bf0aa032U, 0x3dd13c82bec602fcU, 0xbd8b3c7abd44375dU,
  0xbe0b91dbbf3e6d11U, 0xbd23286b3ea67473U, 0x3e937e243f01edd1U, 0xbe308040bf4fd77eU,
  0x3f117b293f59a580U, 0xbf0904173fa178afU, 0x3f87377ebeb93a1bU, 0x3f0e87f9be3c1b55U,
  0xbc98a6933f21b416U, 0x3e3359283f5efb03U, 0x3f4eb8fc3f103af0U, 0x3f5038ce3f0c09bbU,
  0x3f0e4d253eeaca53U, 0x3f58632bbe810044U, 0x3df610023ed2c086U, 0x3f80d8053e930dabU,
  0x3f5600d53fc60015U, 0xbec9563e3f434233U, 0x3f5f7f57bdc95b6fU, 0x3f7cdb043f727852U,
  0x3f5760d33f7b48dbU, 0xbe5bc9de3f640e83U, 0x3ecb8c1b3e107153U, 0x3f5c46eb3f615551U,
  0x3f82ef153e083646U, 0x3f4ed73a3f923ff2U, 0x3f22b2ab3f70c7d7U, 0x3e55f24c3f3dbeb5U,
  0x3c3f2e8dbe1f3d02U, 0xc000b2cd3e860247U, 0xbe12d07c400e9643U, 0x3d949deabd8b73bbU,
  0xbe8710753e93af0eU, 0xbdec1ffebf11f1c4U, 0xbec70cc2bec1d84eU, 0x3f276388bf1d1424U,
  0x3f28d29b3ef90825U, 0xbfe2dbb13f6ba570U, 0x404a0d1fbea03a30U, 0x3ecaedeebfdc4aa5U,
  0xbf8b260a3f346f28U, 0xbe4fad7bbe93ee7dU, 0x3f4c77b3be56e2f1U, 0xbee22c33bd09eab1U,
  0xbe41518c3f03827cU, 0x3e351e6c3dcc34f3U, 0xbea3d7c53f49d84bU, 0xbe82107a3e83e9f5U,
  0xbe3ba6543c1a94feU, 0x3e1d66bf3edb0d3bU, 0xbd995aa73e134c4aU, 0x3db7d98cbbaef9abU,
  0xbfbc8721beeb8c4bU, 0x3e13e966bdcc95deU, 0x3e0076f4bed11072U, 0x3eef05c5be173501U,
  0x3f84880abf7c6989U, 0xbf11486c3fd34351U, 0x3afc9545befd85bfU, 0xbe021beabf422864U,
  0xb83f76f83e2607c8U, 0x3f60dd8e3dd5d127U, 0xbdd06b343d6b93eeU, 0xbaf8d5f33e8111c7U,
  0x3e384befbeb5051bU, 0x3e2796eebe8d9e98U, 0xbe14a3b73fa2d24aU, 0x3e8915b5bea5d418U,
  0x3e92a857be6b41fbU, 0xbe70e4b43c26c7f2U, 0x3e131b0c3f208b75U, 0x3e0cfcc6bf43746bU,
  0xbda779373dec6de1U, 0x3fc852b5be34403fU, 0x3e906c20bf1cc126U, 0xbf65f63c404a5dbdU,
  0x3efaf4ccbe12ee35U, 0x3dfaa6d2be27031cU, 0xbe396c113fa1cd55U, 0xbec897ed3e44eb2bU,
  0x3d0457a63ef8be25U, 0xbdaf5c5dbea7355eU, 0xbdfab88c3ec89a95U, 0x3e93a3b53e996780U,
  0x3f0b2e7fbf675b73U, 0x3e5370733e9e6e6bU, 0x3d6aef9f3ebd985fU, 0xbd14bab73e9eabe0U,
  0x3e364cb83e156432U, 0x3e02466c3dc292feU, 0x3d1833353f5fcebeU, 0xbf1768343f9e3ea7U,
  0x3f79fbe9bf00c6eeU, 0xbf1455dabec0525fU, 0xbf27cd9d3f6a377bU, 0xbf27961bbf0e9948U,
  0xbf44b1cf40120531U, 0xbf43b74b3f0fba8cU, 0x3e2cefe23f42a976U, 0xbdc77424bfb26d1aU,
  0x3d996a8d3dc90980U, 0x3ea06c193e663a4cU, 0x3e93a2b63fd13681U, 0xbd0a309bbe9465a7U,
  0xbd45de09bd54a4e2U, 0x3d51a849bedd36a3U, 0xbf1ac239bf160ca9U, 0x3d6d74bbbd997fc4U,
  0xbd258b0dbe5157e7U, 0x3e6aa428be50f741U, 0x3ef40920bcbd8547U, 0xbd2beac33f39c63bU,
  0x3f183600bd80ea3eU, 0xbe8e9a23be583f8fU, 0xbe2ada00bf85615cU, 0x4031782d3f61e725U,
  0xbf7efa7d3ecc048aU, 0xbef4c727bfcdf4baU, 0xbf5fdfebbebcff34U, 0x3f7eb2713cc3026bU,
  0x3ce502b13fc40ecaU, 0xbf0cc986be1bcf20U, 0xbe9d60c6bd8e2ceeU, 0xbc24fa54bffac9e8U,
  0x3f9edc11be24eb66U, 0x3de09de8bec6c9e9U, 0x3d1fb8783f944271U, 0xbf3b8498bf1224fdU,
  0x3eec8b49be88298dU, 0x3ec5a8aa3f8d17ecU, 0xbce42e7cbca7dad0U, 0x3f598915bd2ccc76U,
  0x3f14c60f4031050bU, 0xc09176f7bfb87233U, 0x3ea03734bf725b3dU, 0xbd8cd1733fdc2798U,
  0xbfa0e00bbf93bd4cU, 0xbde9eb60bee45248U, 0x3cafd06dbd87e908U, 0x3f2a7318be5d930bU,
  0x3f45a02ebecda32aU, 0xbf817561bfb0d999U, 0xbecaffdebe8af096U, 0xbe5d87df3e3eb058U,
  0x3f0af8bd4002d96eU, 0x3e2d0e923e47772fU, 0x3e8d1544be54b054U, 0xbf7d14353f56447fU,
  0x3c463dfd3e5f1db3U, 0xbec266e9beb1c302U, 0x3e8048983f56d88dU, 0xbe6b159abed7e487U,
  0x3c93e3643f26f4c9U, 0x3e4d2e403f818281U, 0x3e55e2d3be0116d3U, 0x3e8777283cf20ecdU,
  0xbf47a7d83fb9eb6bU, 0xbf360383bf075c3eU, 0x3e4bdc1a3f02964cU, 0x3e8937b73ea2f5e5U,
  0x3f8e26d23ee961adU, 0xbf5bed373db539d0U, 0xbf1f58d3bf5ccafbU, 0x4047fb2abf0ab333U,
  0x3f7ebcebc013aaa7U, 0x400b9bf7c0498dccU, 0xbece0fd8be3a007dU, 0xbe0b3bc13f0a171aU,
  0xbe2b058e3e02dbe3U, 0x4023132f3f7c70a2U, 0xbd15a4783eca3359U, 0x3daa702b3d013f4dU,
  0xc0229adabf21c90aU, 0x3f5316133e8bf56fU, 0xbe91df353f357647U, 0x40008defbd386d25U,
  0x3e0676d43d072837U, 0x3e8e3fa5bf0d6d0aU, 0xbf0d8fadbeeef16fU, 0x3e84922bbf073e5dU,
  0x3e798b10beef4f3aU, 0xbf9969c63e9a77deU, 0x3d262a4b3ee58d93U, 0xbec77398403c8efdU,
  0xbffb0017beee4dc9U, 0x3b0fa6393d949d46U, 0x3e54dfbb3ec529d3U, 0xbf7b56263fa20db9U,
  0x3eb68e69bed01c1fU, 0xbe2012ae3c96e45bU, 0x3f887a8c3f32157bU, 0x3da8ae743d5a6effU,
  0x3f0a2df7bf05703dU, 0xbf0988b3bee8a4c6U, 0x3e6aee43beac291fU, 0x3ecdd335bf026d77U,
  0x3f1db8503e4549bbU, 0x3e380be73de89eb3U, 0x3ea3a731be8d7ef5U, 0x3ff16eee3ed76391U,
  0xbf4549dcc0038b19U, 0x4004be3bbfcfb295U, 0xbed5a86b3e6158f2U, 0xbe16bd4a3e790d8eU,
  0xbd4047f43e9dcb91U, 0x40781738c05d53fdU, 0x405389143e7ec750U, 0x3d4a3e11c0776241U,
  0x3f0d101f3f2da27bU, 0x3e90ec7d3e60b2f9U, 0x3e5753e2bf8d799fU, 0x3eb6523c3e0be055U,
  0x3ea73f65be7d9cc8U, 0xbdf95019beb4395dU, 0xc0616358401b8564U, 0x3f06a9723fbb3706U,
  0xbe485d36bf2fedb4U, 0xbf07aebebea115b7U, 0xbee20c8abe5887f8U, 0xbf7b1c30402f93c8U,
  0xbf974f4dbd9cb36fU, 0xbc648e4d3da713beU, 0x3e8264b1bda2bbeeU, 0xbf8aef61bf3424e3U,
  0x3db5d6343d3d5ea1U, 0xbe0d565a3f20d34cU, 0xbefd074abf622580U, 0x3e4e6d1ebf8a0e73U,
  0x3ee617c93f46bdfdU, 0x3eb89b493e0d9bcaU, 0xbcab1f1a3da37f16U, 0xbce6975abdacb3b2U,
  0xbf1aad70beb52be1U, 0x3b0e61f6be107346U, 0x3d1752bb3db8450aU, 0x3efa4e45be994262U,
  0xbed169cdbee7e88bU, 0xbee963c63f6fb8a7U, 0x3e2be1e6bdc3531aU, 0xbea7370dbbfaf723U,
  0x3ee8a69c3d0e4fddU, 0xbf906a293e5298d7U, 0xbeb347f33f9957a6U, 0x3e92a50b3d3d1ef3U,
  0x3eb0f047bed7b01eU, 0xbbb02db83e164e6aU, 0x401f43ce3e24a0efU, 0xbf0c2b0bbe4fb99eU,
  0xbe237d14bfb95150U, 0x3ca1e3e0c072d92aU, 0xbf7afd0abf013af4U, 0xbde35576bcac7360U,
  0x3ff23999c00fb8b6U, 0xbe629a42bf01f745U, 0x3de3d3e2beccd6b2U, 0x3f0b4455be9f4a2cU,
  0xbe47a3c1408ba25cU, 0xbe4824a73c8847c4U, 0xbe5f9f84be276cbaU, 0xc06dfaa3be6d75faU,
  0x3fa3c238bec2fa64U, 0x3f9ede71bdc8cb39U, 0xbed98ad8be100cbeU, 0xbe913d8abe3de046U,
  0x3d1b1188bf4509a6U, 0x3f82b01540095456U, 0x3f54253a3ecad21dU, 0xbeeced22bda13c9bU,
  0xbe61a9cf3e514970U, 0x3eb835463f08eb5bU, 0xbe5c84693e289300U, 0x3d15714c3e0ea7faU,
  0x3e9073cbbd0a49e6U, 0x3d757f63be39e4ffU, 0xbee0ba4fbe837e2fU, 0x3cffbfa13e3caa25U,
  0x3ea1af29bf12a284U, 0x3eb25a9dbe2341faU, 0x3eadc6bebe50300eU, 0xbe28bee0bb76c6ffU,
  0xbe809752bc74d115U, 0xbdff21993eb85924U, 0x3ddc4ac4bdeb53c2U, 0x3f0eb91ebe206ba7U,
  0xbd09d806be9c5582U, 0xbed89550be1b374eU, 0xbe6fccb5bea069a0U, 0xbda3d39fbe3fa68eU,
  0x3ea53420bda71aaaU, 0x3d8c7d4abf297314U, 0x3e10d3b33e8af4afU, 0x3e84d7833e1b7e82U,
  0xbe3be90ebe96c8a8U, 0xbd425f3d3e9ce73fU, 0x3e0f7dcdbe1a0435U, 0xbe227063be47d7e1U,
  0xbc9e4c843e6280e7U, 0xbe126579bc99e71eU, 0x3d80b364bdb135a1U, 0x3dace8243d068873U,
  0x3dbe32a1bc30142bU, 0xbd1cfd133daf8cfaU, 0xbe054f53be96b28fU, 0xbe0d0542beb34d74U,
  0xbe443dae3dd090c1U, 0xbe3defafbe0c87a5U, 0xbeb069533dd94b50U, 0xbf21489ebd5722b1U,
  0xbe8f88b9bd5fcce2U, 0xbebe1c95beab9f39U, 0xbee0d8d3be5a9f04U, 0x3de9359bbe0c368cU,
  0xbdb8f6573e4d8d69U, 0xbf0bdc463ec9d8edU, 0xbda89cd9be88699aU, 0xbcab4c24bdee5ed0U,
  0x3f126c64bed71a66U, 0x3e86f412bd114f99U, 0x3d8773543d9d7144U, 0xbe68d87a3de83fa1U,
  0xbe9ac2963ef27c01U, 0x3f0e3ad73ee2371fU, 0x3da0c07b3f1fa142U, 0xbec9c8c13e66ce3eU,
  0xbcb901ed3f196abcU, 0x3e5508543d551d20U, 0x3dd51fa5bdab4f82U, 0x3f4b45fd3de895afU,
  0xbe9789cfbf40b182U, 0xbe243a8a3da77cc1U, 0x3f0f1b2abd25f0adU, 0xbf0bcb77bdf46056U,
  0x3c60f982be239db7U, 0xbf06ef4d3d25a411U, 0x3cf572c6be1fd87fU, 0xbdaeeac8be66609dU,
  0xbf0aef9d3f11a81cU, 0xbd47f9a33df69e46U, 0xbf412e9f3e2230f4U, 0xbdea9fd23cbaa5b1U,
  0xbe0092513ed3e993U, 0x3e818196bedf2dadU, 0xbf19c8cf3f1b3514U, 0xbf5fc9453d2a57edU,
  0xbd3b4888be89339fU, 0xbf22a2ebbee002b7U, 0x3f667756be2c7434U, 0x3e12e09ebde89d88U,
  0xbe088126beab9738U, 0xbeb0b3cebef203baU, 0x3f0ffb1c3e660838U, 0xbec9fd87bdb0d659U,
  0x3e9c34d53f48921bU, 0xbef99eac3ecc463eU, 0xbf3245ba3e6bf09dU, 0xbeee4bb73ec50d78U,
  0x3eee41cd3ec83cd3U, 0xbf08c5bd3f4d350aU, 0x3de66de5beb425f6U, 0x3e9ee821be5a07acU,
  0x3f238b603e1217d0U, 0x3e6f42bfbf17109eU, 0x3e58ed2ebd20570aU, 0x3e8071ac3d8a1843U,
  0x3e229ceebe9fb3e5U, 0x3ec1e0d0be89f54cU, 0xbe23b3e93f0a859cU, 0xbe8a64653e132b83U,
  0xbcbf5cbebe550275U, 0x3e592f11beb07751U, 0xbd99b693be8c7c3aU, 0xbebeb69c3d7ed64dU,
  0x3ec77f0a3db542f9U, 0xbe8b6b50be4bc27fU, 0x3e6dd9bebe898ae0U, 0xbec7386bbecad540U,
  0xbd3dd8b23df859b2U, 0xbe7ab0f83dbdba04U, 0xbe49c4e83e470ddeU, 0x3eaffccebe549f42U,
  0x3ee820f5bd5f496bU, 0xbee4244fbee04766U, 0xbec50290beb28a3aU, 0xbc665ed2be764990U,
  0xbead34213ed510ddU, 0x3de2f9a83f4099deU, 0x3efb79083c7f994bU, 0xbe948f76beb45068U,
  0x3d4884ad3e87714dU, 0xbd38aa163ecf4cc2U, 0x3dd13a84bcadd0e6U, 0x3e21e77e3e8bdb3dU,
  0xb8ce9c593f21b5fdU, 0x3aecb8ac3eb48b7fU, 0x3e932f623ebb5dacU, 0xbe95a5013e04d5edU,
  0x3e30aae5bd858222U, 0xbe5e25fb3e2e1705U, 0xbead56b2be860b0bU, 0x3e6a92953d7dece7U,
  0xbd2a4b093deff640U, 0x3e5b80d33de2f53fU, 0xbe064073be329b1dU, 0xbdce74613dc54d19U,
  0x3e70adf9bddd015aU, 0x3e98c6c4bdc7c7a5U, 0x3be1eb2d3e65c86fU, 0xbe5dbe5cbe0d5134U,
  0x3eab8d22bcb88c09U, 0x3e4f11f33e3abf81U, 0xbd441103bd9c1e8eU, 0x3d50e0893eb50058U,
  0xbe23b1f0bc830422U, 0x3d335b7cbd2224faU, 0xbcaa9f9e3dcd4d5eU, 0x3d18711a3b4181f2U,
  0xbd843e27be0a2487U, 0x3e136fdb3e8f7adaU, 0x3e3000d53e864e85U, 0x3e1a27bdbdecf811U,
  0xbeb5b9453e9dc665U, 0x3c27797fbd8b5eecU, 0xbe04e652bd10f356U, 0x3d92b29bbe8a3da9U,
  0x3e37f2f3be59661cU, 0x3b659edbbdaadbc1U, 0xbe1ca90abd5f1493U, 0xbe0c9f333e3c374aU,
  0x3d20770c3e88a135U, 0xbd990b9ebe48becfU, 0x3c5bab4dbe082d97U, 0x3cb0fa6f3e22530bU,
  0xbe3e21633e3d2ce0U, 0xbe40056fbc903b12U, 0x3e17b175be9f7ce9U, 0x3d677e8abdd4dee1U,
  0xbddce700bda954b3U, 0xbe1e8287bea2d4c4U, 0x3f0c54f03db743c7U, 0xbc7767c23c2aab36U,
  0xbe95bd64bd0790e0U, 0xbf02a589bf238168U, 0x3e83c3eb3e57e34aU, 0xbe732e39bea1586bU,
  0x3e042c9dbe51d055U, 0x3db3ac9a3f0181e4U, 0xbec58bc3bda91ce8U, 0xbda3b5463e9d3f81U,
  0xbe2692633f0abc46U, 0x3eec967cbebaee38U, 0xbd19262cbe4d39b9U, 0xbed18687be05638eU,
  0x3eb6c145be74227eU, 0x3f13707f3e79e38aU, 0xbe927a923ee02a9fU, 0xbe5cf857bdd2033aU,
  0xbccada65be12f70fU, 0xbda74af93e4224e5U, 0xbdfdab65bcef214bU, 0xbe9517e93cba9a31U,
  0x3fe013063f9cf63cU, 0x3f843ab43f7981a2U, 0xbfd931273e88b95fU, 0xbf55e84f3ef4ed2dU,
  0x3d87e8fc3dd605a7U, 0x390d2b7ebe227e3aU, 0x3e2ace1bbe14b481U, 0x3da6a551beafdd1eU,
  0xbdb74dfd3adb9ae8U, 0xbbfa4699be404ce0U, 0xbd0e30a2bc0882bfU, 0xbe21d6183e40261fU,
  0xbdde234bbe8feb3fU, 0xbddb34c0be179db5U, 0x3e026ce2bd987d44U, 0xbc7e7589be871210U,
  0xbdc72877be294cd7U, 0xbd1862ba3d141b5fU, 0xbeaee5cabd787970U, 0xbd490f2fbe9a3221U,
  0xbf0d4cc5be501f98U, 0x3db9b78dbe45abccU, 0x3dcba0833e8f63ccU, 0xbe36f6fabe413217U,
  0xbcd9a91c3d83581dU, 0x3d33d5e33da5ebdaU, 0x3d73b966bdf21b26U, 0xbdcddfbcbd88d59eU,
  0xbeaf290b3dc41583U, 0xbd9c2de6be30c6f1U, 0x3e2dbff7bcda07c4U, 0xbe69dd58bdf9f52aU,
  0xbe61dfdfbd621e94U, 0xbe144ffabe11b0c6U, 0xbeab788c3e329abeU, 0x3d498bf6bc3756f1U,
  0x3d8d26553d2944ffU, 0x3d8d5c4b3d424992U, 0xbd5a187b3d3af65dU, 0x3e0a97d3bb18b988U,
  0xbe48ca97bdb7263eU, 0x3cbe793bbe3d4e24U, 0xbd5bec123e2b1e7eU, 0xbd26aeff3ee2efbcU,
  0x3d32b8debd82e4c1U, 0x3d63c559be85d03aU, 0x3d4fa9b13d476944U, 0xbe6d54263e63fa39U,
  0xbe04b8643c746582U, 0x3c644dffbdec4685U, 0x3d5d9938bed8efdfU, 0x3e2e58983c6afc62U,
  0x3e056ce73e3d1908U, 0x3d844259bd608a3aU, 0x3e808a8bbe12eb45U, 0xbc8fd0603e270f25U,
  0xbcad52d3be163cebU, 0xbd8e48483d9ad5f7U, 0xbed04ec93e01a906U, 0x3e621671bc4afb81U,
  0xbe3aeb4dbec9f2efU, 0x3dfedcb33d60bac4U, 0x3e905c563d109c94U, 0xbf02aac5befb0d2bU,
  0x3e3d1fd33e0758fdU, 0x3c8b21563dc95343U, 0x3db050d0be990d0dU, 0xbdfb6c9f3e829ed8U,
  0xbdfabb173bfe41dfU, 0x3e2fa27dba68d701U, 0xbe0e2fbebd01ca4eU, 0xbe86b3f63ca5e409U,
  0x3e238f49bdbb6a96U, 0xbc9885b83cef90c2U, 0xbd7cda67bd9a064aU, 0xbdc8ee7dbdd78782U,
  0x3e5ccf503e0f8da2U, 0xbe3850dbbe1e23e6U, 0x3e1464323e2e0cc2U, 0xbe083656be064b58U,
  0x3e936012bdcac8cfU, 0x3cebade0bd5dcb03U, 0x3cd89034bedb4bb8U, 0xbeaba71fbe7cf093U,
  0xbc1d6123befeaa2bU, 0x3d514d313d25c9b6U, 0x3dbe0fab3dcb7540U, 0x3e3e19f63ebecf37U,
  0x3b039070bda95a49U, 0x3cacc1153e1337e5U, 0xbe88adb2be4f071fU, 0x3d4c59a0be99991cU,
  0xbe15b867bc4cd2f4U, 0xbc72e48bbe26f1bbU, 0x3b86c47dbef4b187U, 0x3e5a8c333cdfb219U,
  0x3c7111823e11745aU, 0xbd068d58bd01ea22U, 0x3e1963f23e8a951eU, 0x3e42c9d8be4490dfU,
  0x3c7cae8e3ef29c78U, 0x3de12708be34a6cdU, 0x3c685580be98988dU, 0xbc62fd693c271c94U,
  0xbdb98f013d7f62e9U, 0x3e38585f3e03f5c2U, 0xbe71c4e2bdba5de0U, 0x3e3f13473d0a11d9U,
  0x3ecf99513dab304eU, 0x3e4616e63cf9f13bU, 0xbd80c2d93e7b3855U, 0xbd8b31363da71c2eU,
  0x3e86eb4abe8b09fdU, 0xbd5b71663e03a554U, 0xbe265d4f3e88f945U, 0x3e52fb403ba3f580U,
  0xbe42e77dbe3ae210U, 0xbda93fddbe2027c6U, 0xbeb05ce03e453c08U, 0xbd43d3b83d67ec8dU,
  0xbd60db1ebd9e8b61U, 0x3d9e2ee53d89f112U, 0xbe28a8b23e3b610bU, 0x3dda33d0be13a3deU,
  0x3d20aa0a3ddc8062U, 0xbdb46532bdd6958aU, 0xbda604cfbd8ffd02U, 0xbd73f0bbbd889a01U,
  0xbb4806a73d91c031U, 0x3e231d353dcca67bU, 0x3c8b7e4ebe9c5f0bU, 0x3c2c84463db9358eU,
  0x3d8a4f0f3f056a8cU, 0x3e320a693e49121eU, 0xbe7e0c89be26819fU, 0x3e81b3d83ec078c9U,
  0x3dc764a93ecc1f79U, 0x3d108d51bde5f67fU, 0xbe49261abec291c9U, 0x3e08e6fe3d9e2b63U,
  0xbd1316a23df88b7dU, 0x3d87ea57bd775a22U, 0x3ec9722fbe1b0ec1U, 0xbe7b2ed73d841dc5U,
  0x3e1c2fb23edefce8U, 0xbe195b24bd8d8cb2U, 0xbea5fe0d3e283999U, 0x3ef0266b3dc0f4dfU,
  0xbdc7ca07bd89f5faU, 0xbe4fb7a23e175c3eU, 0xbd03b6eebd92054cU, 0xbe920a973e3a9edaU,
  0xbdb1ffaf3ddd04e2U, 0x3d7439333d9f6013U, 0xbc8bc2c63e19c1e4U, 0xbe2db7483d5363a3U,
  0x3ecd3ef53e5ee418U, 0xbdc1194e3d064901U, 0x3d922f58bdacf7b6U, 0x3e7a00213d9ac158U,
  0x3c0c461c3d2698efU, 0x3e2004d8be49d5d4U, 0xbe037671bd6dba40U, 0x3e9b03debe3bd4f0U,
  0xbd35cdccbcc411f2U, 0xbd28e415bacff146U, 0xbe3066e33d0784d7U, 0x3d5e150c3d0b66a0U,
  0x3d819aafbd19dd1fU, 0xbd97d6f5be16cf8bU, 0x3e154c8d3de0dc9aU, 0xbe02ef0d3d997c7eU,
  0xbe00f78c3d910051U, 0x3cb74393bde27ddcU, 0x3eb4f1ae3e4a3f17U, 0x3e2a274f3d971443U,
  0x3df85ab3bc7c5020U, 0x3d3f6e83bd5b9faaU, 0xbe4b53b0be8d7cc4U, 0xbe185f883dfb7bdbU,
  0xbe18d49ebed3b1c0U, 0xbdec473ebd066ffaU, 0x3e3c6c133e36070dU, 0xbe63c084beb95caeU,
  0x3e167f70be1bde13U, 0x3d5bd715be05ff23U, 0xbc4af7db3dc79bb6U, 0x3ea28884be3ebdcdU,
  0x3d3bb983bc80254bU, 0x3b5a44a93df71a43U, 0xbd375bdebd6203fcU, 0x3d2e5f5fbd5ea53fU,
  0xbe1ad4a8be53a92eU, 0xbdac2fb2bd9c79dbU, 0x3e25f6483e32c98bU, 0x3e074e38bd400664U,
  0x3f4ea958bf05d313U, 0xbe6b68423f48163cU, 0x3f63b045bc628e75U, 0x3ed51f953f5c51c0U,
  0x3f123ece3f7ebcf8U, 0x3f06d88ebef7c8dbU, 0x3ef624d63f3380cdU, 0x3e1d26d2bdee5223U,
  0x3f758418bee7a93bU, 0xbe90aa1fbf01105fU, 0x3e95efa83eb2cdceU, 0xbe13c4e63e180cafU,
  0x3f09b3233c4e07f5U, 0xbe96b439bef6d163U, 0xbeebc12cbe74a66dU, 0x3f311b153f8da627U,
  0x3e94f8583e40567aU, 0x3eb6b68b3de3dccaU, 0x3f5f678c3e861c2fU, 0x3e2d41533ef861faU,
  0xbe9736173f817ba0U, 0x3eda0a303e471520U, 0xbef088a5bf082c50U, 0x3f1467e53f8ae060U,
  0x3f9a215e3f377ff3U, 0x3f080ccb3ee859feU, 0xbe2941333f1bd812U, 0xbfbd5d1bbed20554U,
  0xbe6d000bbf3889b8U, 0xbe3781b3beb10678U, 0xbee3bb14beb48740U, 0xbe4acb53be8b1411U,
  0xbdc744c9bea1a8b4U, 0xbe8b1026bdfc19a4U, 0xbeb95317be21bc23U, 0xbedf61acbf291071U,
  0xbeb85f7bbe2ec2feU, 0x3e307a1abea0a429U, 0x3db53bf63e943051U, 0x3ee9352e3eaf9863U,
  0x3e6c258b3e838858U, 0x3e388bf33eae74baU, 0x3e56c8a53e37238bU, 0x3e7d75f53d600567U,
  0x3df6adf63e9a0a45U, 0x3d95a6fe3d8ab77eU, 0x3e82f1b83ce24bbcU, 0x3d4a00993e97be4eU,
  0x3f3041083ecfecc3U, 0x3e685e753e5cf63bU, 0x3db4a2f63eac2841U, 0xbea05180beaa0581U,
  0xbf1e3c9ebd45dd94U, 0xbe6537a0bf15cda5U, 0xbeb69112be97434aU, 0xbec52c7d3bda7ddcU,
  0xbe60eebdbedc6232U, 0xbf0e90bdbf135d10U, 0xbd80ce85be878664U, 0x3d13f51bbc6d6ad9U,
  0x3e964ada3ddac4d3U, 0x3f9ab62c3e80da35U, 0x3f571e653fd74c58U, 0xbf4c93dabf885cfeU,
  0x3de05328bf6fdbaeU, 0x3da389233e260524U, 0x3eb48baf3e782e15U, 0x3dd02bd13e0e0793U,
  0x3d9fca4a3e2020feU, 0x3f3052203f152653U, 0x3f42ea903db14c76U, 0x3e7ca9443f60ba0dU,
  0x3ee6aa013e88297dU, 0xbe9084d23e60e869U, 0xbe2618c9bed16156U, 0xbf0cbfbfbec9a3a3U,
  0xbe47b52abe699292U, 0xbdd6f963be9c74e8U, 0xbec89184be4c469eU, 0xbed5590dbeb9378fU,
  0xbeeaca9fbf0b8ea7U, 0xbed72770be86e901U, 0x3f21215abe67128fU, 0x3ebc92ec3f55fe08U,
  0x3f9de3e73f726550U, 0x3ed1fd7c3ec8e15eU, 0x3e41e5c83ee48decU, 0x3eaef9aa3ea9b34aU,
  0x3eb3635c3e2159fbU, 0x3df215363e9dac7cU, 0x3e394e973e54b2b3U, 0x3e18430a3dd5a52cU,
  0x3d5d2df13e90fe1bU, 0x3f01b7e43e97dbe6U, 0x3e6d45373e6d4cadU, 0x3e4f9e603eb68d1aU,
  0x3e88de023e5addf9U, 0x3ed4d3f03d90f2e3U, 0x3e11ad193eebe87bU, 0x3ea0969e3e78a879U,
  0xbebf738b3dca36deU, 0xbd87aea5bee79f55U, 0xbf146bcebee872dfU, 0xbdaeee19bdede799U,
  0xbc7049debdf7fb86U, 0x3f4a94933f51efe1U, 0x3f89598a3ece8ab4U, 0x3dc8f5bc3f7b3189U,
  0xbff7be9abfa4b166U, 0x3e83738fbf906fc5U, 0x3daa959b3ea1271aU, 0x3eb9253f3ea658baU,
  0x3e1bd0ba3d9a0003U, 0x3dc0fdb13e5151f3U, 0xbe7d4290be900d26U, 0xbead6718bc8e76f2U,
  0xbdbe8722bec839a4U, 0xbe388080bdffc624U, 0xbe521d71bdbd1ebbU, 0xbe87cd34bed816b4U,
  0xbee3e5d5bede58daU, 0xbe6d68acbe945d84U, 0x3a926b23bea879d3U, 0x3e6df5563e024a18U,
  0x3e89ed533d9e1c49U, 0x3e6b7d4e3ee23ee2U, 0x3e8adfb03e22df21U, 0x3eb058b63de62035U,
  0x3e1e77133efde83bU, 0x3f052fc13f0b548cU, 0x3e6e67853e6991ddU, 0x3e0616eb3e937712U,
  0xbea3fdabbe22c3b2U, 0xbf00a6b7bdd21595U, 0xbe7fe76ebeeb792eU, 0xbeb9b1b4be836cc6U,
  0xbda7bd94bdbe1390U, 0xbd4e48a5be9cd484U, 0xbf10a1febe95edefU, 0xbea3b16abd7b2069U,
  0x3d585e1dbe1ccb65U, 0x3f81c7353f4ed53cU, 0x3fa3141c3ebe840fU, 0x3eb33de83f9f9ce8U,
  0x3effcc4e3f0c8b92U, 0x3ef1576a3e6fb9a0U, 0x3e2b280b3f29373eU, 0x3f8040e33f2901b3U,
  0x3eba35493eee0557U, 0x3e686cb73eecf2e4U, 0x3f3e27ef3f2a158dU, 0x3f40847b3ea2dbf1U,
  0x3ed517793f428e82U, 0x3e4050573e479307U, 0x3ebc09353dcbe865U, 0x3e6417313f267918U,
  0x3ee292d13f1c73a7U, 0x3da86b233e239fa4U, 0x3de1cac1bda24b4aU, 0xbe72eaa2be307d7fU,
  0xbea42d46bd5e814cU, 0xbdfbee57bee25d5aU, 0xbe9149c1be48d0eaU, 0x3e598a9fbdd1923bU,
  0x3cfa20e93e9d4c81U, 0x3ef9f17b3ed4470fU, 0x3e0cc0e53e00a9b5U, 0x3d7afc013e3d1d2eU,
  0x3e55e61d3e1a74daU, 0x3ea751563dbcbe98U, 0x3e5781863eda8d21U, 0x3e8870fe3e246016U,
  0xbea6aa353e0411e5U, 0xbe660680bed1f77eU, 0xbf1b4473bf400bc0U, 0xbe620a3dbf19530cU,
  0xbe322e21bf06aa65U, 0xbef87201bedf8e6bU, 0xbede5d44be51a277U, 0xbe809239bebbc13eU,
  0xbdbae5c3be22f7f4U, 0xbeca1d49bc2164aaU, 0xbe257249bec436d5U, 0xbee73460bf1e7153U,
  0xbe86b95dbe353879U, 0x3bc3f566be43b98fU, 0x3eae21da3e623159U, 0x3ec1e92e3db3ea94U,
  0x3e63d8d93f058e0eU, 0x3e32faa03db85af1U, 0xbe60b1083d3a0952U, 0xbdb36981be837b20U,
  0xbee398d1beba5196U, 0xbe33cfa2be0879f7U, 0xbd38ef06be3b20fbU, 0x3eedffd93ef2de8cU,
  0x3f372ebf3d86c171U, 0x3e1bdc023f3631c7U, 0x3ea34edf3ebc5771U, 0x3d56e41bbaf96275U,
  0x3da9cc3b3dd1f68dU, 0x3ea7ada33e1dfc61U, 0x3e3c10e83db62974U, 0x3dd71ed53e8536c2U,
  0xbf065849becb3658U, 0xbed7c884be317d56U, 0xbdd3955fbf06e0b0U, 0xbe08a486be184b82U,
  0x3f2e5e5ebcc024bbU, 0x3e53e3f63f656722U, 0x400746ca3fbaa7c6U, 0x3f4ed9513f0c3a2bU,
  0xbc6e7cd43f544a92U, 0x3df26c2e3db98123U, 0x3e7a25473c418c6eU, 0x3db816063ea3286cU,
  0x3e91aca83e425c65U, 0xbeeedd3f3da620a7U, 0xbdbd840abee81540U, 0xbf048b6fbf25ef8cU,
  0xbeb04386be50e4b7U, 0xbc66552ebec9a11bU, 0x3f0698273ecca50eU, 0x3f15653a3e28784cU,
  0x3e876af63f6275dcU, 0x3eb720ca3e69abacU, 0x3f633b7d3d9d9707U, 0x3e51ad5d3f69a078U,
  0x3f92785d3f6d0bf4U, 0x3e01bb1f3e0e94ddU, 0xbe19e6e1be78d31aU, 0x3f1e136e3f0fee90U,
  0x3eb161473e189092U, 0x3e7acfd43f077f91U, 0xbf90b750bf6d80e5U, 0xbeb5edfabefed5f7U,
  0xbe5b088bbed6c62bU, 0xbf52e83cbf09b294U, 0xbe590794bee7e285U, 0xbe28a9c8bed5d0c6U,
  0x4017e2453cd6fa04U, 0xbca3374040306713U, 0xbfba86d83e2a5346U, 0x3fe45d8a40076e0dU,
  0x3dc94248c0653412U, 0x3fbc2253be121eb2U, 0xc04d85c5400f95afU, 0xbde758c0bf4bd6f9U,
  0x40460a423da669d4U, 0x3c097180be062d68U, 0x3f50a258402b1ac9U, 0xbf0c281ebf288672U,
  0x3f9006d53fa79cc6U, 0xbe9e5cb5beed24deU, 0x3d8a9008bf109d15U, 0x3d3063204024a0afU,
  0x3f8960e8be901998U, 0x3fb2c93f3f8d31c7U, 0x405bdd25bd9f56e8U, 0x3e688232bf709d51U,
  0x3e410dca402966baU, 0x3fce0ad33d5c1fe0U, 0xbdee90403d21c4b8U, 0x3fe7b39ebfb1c0b3U,
  0xbe0bde85bdb60445U, 0xbe7789843e4e944cU, 0x3ece619e3e88a7ddU, 0x3ee78a423e9f0ee0U,
  0xbe4cbec03f01345dU, 0x3e851cbfbd998ea4U, 0xbdd72b04be10a93bU, 0xbd8a9cb53d900f6bU,
  0x3e4563dc3e5cc1adU, 0xbe6788da3d60de6bU, 0x3dace453be1b7abfU, 0xbe24dcb9bec61c86U,
  0xbd5367433e0c069bU, 0xbeac3a123db62c86U, 0x3e07491dbe36c388U, 0x3dfe1e3d3e460cfaU,
  0x3e614e1c3e040768U, 0x3dac555b3e8db535U, 0xbe8279763f11896bU, 0x3c82ccbabeba9a33U,
  0xbe93f872be87afe4U, 0x3910c4b9be0c7912U, 0xbec4d986be9f9650U, 0x3e7cf6acbf13ebf7U,
  0xbc5d4a2ebdd0b874U, 0x3e9d26dfbe89732eU, 0x3daf47ef3cc54ff0U, 0xbdd8f3a7be85a4d7U,
  0x3e30a36dbeb369e6U, 0x3f0c7f013df15755U, 0x3c42ee27be47e675U, 0x3f4fbd0cbe1ee2cdU,
  0x3eb922f23e8400b6U, 0xbe39a12e3d87b39cU, 0xbe1887cbbe95f27cU, 0x3e1b075cbed24e15U,
  0xbd5479233da10636U, 0xbf039e87bdd488e8U, 0xbd40a97c3e948757U, 0xbed0db0fbeb6380dU,
  0xbe4109613ecb72a4U, 0xbeb36913be5717e1U, 0x3e5f93de3e537fa5U, 0xbe8235d73ea1ea1cU,
  0x3ed9aef93c7ed2c7U, 0xbe84ede53e9a9cf5U, 0xbe5195b33cd2380bU, 0xbe27b4cbbea12806U,
  0xbeabc4d73d4caad9U, 0xbd133f34be0970a4U, 0x3d8fc8b4be188d6dU, 0x3d4b4e223cc7ce6bU,
  0x3d99c88d3f051512U, 0xbda4d73dbd250cfaU, 0xbeb8d833be11b921U, 0x3d0119b53e2badeaU,
  0xbe8fa72dbb10ce1eU, 0xbcb93d28bdd13798U, 0x3e6ebd0dbef0b031U, 0x3e15cda53ca4cf49U,
  0x3e58edee3cd560f1U, 0xbdeec8f5be25bbaeU, 0xbe265febbdaaf7ecU, 0xbe6b7dee3e4edabaU,
  0x3e052fddbef678f0U, 0x3e81cd4abe709505U, 0x3e979c10bea8232bU, 0xbdbd828fbdbb0269U,
  0xbdcaa4063f1e2a84U, 0x3e41cd0dbbdb1e49U, 0x3e5689043e053b8fU, 0xbe26c32ebe9060b8U,
  0xbf0d5186be0abb2eU, 0x3e98652b3edfe0f8U, 0xbefe93a53e0857a6U, 0xbda05bb0bdd6b6a3U,
  0x3f1cb08fbf172380U, 0xbe875e7b3e92bbccU, 0x3d6f8d1e3e7c1420U, 0x3dde05febdb8bb30U,
  0x3e2c69283e964f9eU, 0x3e65bd13bdf5e97fU, 0x3eccd7073eadd895U, 0xbe96c2343e24e6bbU,
  0x3ecf886c3d32e019U, 0x3e2b19143e97e9c7U, 0xbea3f969be022aacU, 0x3d9016093d8961f0U,
  0x3c4f29fcbdddd2a5U, 0x3d6e5d813e859834U, 0xbed14c84bdb2b048U, 0x3e64d4cebe51af63U,
  0xbd3963aebe0d960eU, 0xbeaed1c13dbc945cU, 0x3ddd4b40bebf9a9dU, 0x3dd7d89fbc29b5dcU,
  0x3ee62214bd369a81U, 0x3f1450fdbdcc22deU, 0x3ca585403e6ee49cU, 0x3be380893dbbb468U,
  0x3f186868bed61c6fU, 0x3f0ce5d73eb75bf5U, 0x3e2f64e93d0b2265U, 0x3dbaaf933ef2e63cU,
  0xbf4df9953d254a8dU, 0xbdf54b5bbd583deeU, 0xbdac12273f3a998dU, 0x3ee1c147bf47e744U,
  0xbe4acd553f0f88ffU, 0x3e464a173e7e8702U, 0x3e3b86963ec57d37U, 0xbede542fbda108a0U,
  0x3f787e5cbeda72e5U, 0x3df07df63d13e0fdU, 0xbe3f8e3a3ee90fb9U, 0x3e4c9cae3e372c3cU,
  0x3e9b0827be395fc1U, 0xbe3a9aa73bb21f6cU, 0xbed4b7f6bcd9e716U, 0x3e42354dbe7ad823U,
  0x3a029410bdbff059U, 0xbe9103ebbcd677c3U, 0x3e0b5fa1bf048609U, 0x3dde6bf03ee9d64bU,
  0x3e7755cc3d30fbfaU, 0xbe04cce3bdc3fff2U, 0xbcef896ebed8ca21U, 0xbe1091d33e83dcacU,
  0x3e18f206beb42978U, 0xbeb3fb0abe768616U, 0x3ee1d5bf3c224466U, 0x3e076edabca52c96U,
  0x3e046da13ee6b2afU, 0x3d1d4060bd007f28U, 0xbdb49eb2bdc7f39dU, 0xbe661bc43eff839fU,
  0x3ed3d00dbd700badU, 0x3ebeae603e9f05bbU, 0x3e4a6794bdbc211bU, 0x3e1046f03eb83677U,
  0xbe16d4a7bdc558ffU, 0x3e1c70c6bdc6358dU, 0x3e392deabe854a94U, 0x3e68ac093dd5f9acU,
  0xbe231d66bb7bb5c0U, 0x3e39733cbd792dbbU, 0xbeb351c5bebf0fbaU, 0x3c19c0273db1cc27U,
  0xbdb435573e21ff3dU, 0x3d51478e3e8b85d9U, 0xbe296704bebd334fU, 0x3ec6cf323e70b8a8U,
  0xbecc04623d3d3691U, 0xbed3165b3cd82b4cU, 0xbe24bc273ef28fbaU, 0xbe5661813bdbb673U,
  0xbba84a0e3d8f82cdU, 0x3e83c8603d819d1fU, 0x3c0689d93e8e9bd0U, 0x3f608c6f3d75699dU,
  0xbdc38b163ea3be77U, 0x3e14f9ccbdaa1114U, 0xbd895223baaf4ea9U, 0x3dbb36ef3e0e51e6U,
  0x3e6b9b0ebbf2d0e6U, 0xbeac849fbe38fc47U, 0xbe2c252dbd0dcd65U, 0x3e79aee5be1636bcU,
  0xbe4b7355beb59945U, 0xbd637038bf013c1aU, 0xbe92de7b3dbf2dd4U, 0x3e0a50223d629392U,
  0x3d83c1fe3f01a7beU, 0x3c850ce73e8ea5efU, 0x3e06fb1fbdc47a8cU, 0x3c2b1b963cc03ac7U,
  0xbd8529223ec037c7U, 0xbd2fb7cc3c597229U, 0x3deac498bf38dba2U, 0xbe8ce8c23e0038faU,
  0xbd8f82dcbc248cc2U, 0xbde42901bf22b7afU, 0xbe3193d7be40fe32U, 0x3eb91bb23e775f3fU,
  0xbda4c4813e6d48f5U, 0x3e065af13eaa5605U, 0x3fbf2433be74057fU, 0xbef42355be23ef52U,
  0xbc012a8dbef01e43U, 0xbec1559cbf06f387U, 0x3f42bd5a3e9b0408U, 0xbe2e39c4bf565473U,
  0xbe9c70803ebe983cU, 0xbf6aad473fc4e83dU, 0xbf9f7040c011e731U, 0xbf2a0a0cbf97359aU,
  0xbf38315cbed8da70U, 0x3e1fdbdebe63f91fU, 0xbd9c1014be400b78U, 0xbe9e0f4c3ea0ceaeU,
  0x3eb259b8bcd0a546U, 0xbe67e6283dec5cd9U, 0xbe7d3ddd3bcde0bdU, 0x3e8af5b7be40d3bbU,
  0xbe212839bea0e02cU, 0x3c2e4e5f3dbec56bU, 0x3bc9c9893e20892eU, 0xbce9ccbe3d8a6411U,
  0xbddf02843ca677eeU, 0xbe3bd443bed1e17fU, 0xbe31597f3dbcc84fU, 0x3e3eb403bdbb9e60U,
  0xbeddb49dbe846f79U, 0xbd86f1703ecafb53U, 0xbe588f6a3f0b7649U, 0xbc5296d73e53281dU,
  0x3e318c99bd62be23U, 0xbe6a0e913e0cf4d9U, 0x3d8d4aa33e6a9f93U, 0x3ea7e019bddf1a1dU,
  0x3eca9c5dbf052112U, 0x3e95873a3e7a0188U, 0xbb94fb76be5de5c0U, 0xbef456813e2d1b12U,
  0xbd18313b3d99f3caU, 0x3d360b503dc676f3U, 0xbe7099023db00fadU, 0x3e43b53dbbf16939U,
  0x3dfa0482bcaf295bU, 0xbd948a87bc270a20U, 0x3e504d6a3d01330eU, 0xbdeb7cc43e593d2eU,
  0x3eab17ae3e47e6b1U, 0xbe2d42f53c7a01faU, 0xbe21f414be5031cdU, 0x3e8acc75be047386U,
  0xbc9c75253e0146d5U, 0x3c92d2d63dce70d3U, 0x3de633b6bda2c29aU, 0xbe920323bed8d85fU,
  0x3db684c4be89ed1aU, 0xbe982007bef6059bU, 0x3d7764e93f071f1eU, 0x3e7ad3793e4ff089U,
  0x3e0338793e9aee2aU, 0xbcdc8f2fbdbae6ecU, 0x3eaed5f33eea356bU, 0x3b7cd8283d1373f6U,
  0xbeb62a47bebfc478U, 0x3e2a9a55bd1c4ed3U, 0x3e02aea4bea21777U, 0x3d24b38b3e6125f7U,
  0x3eb2f2fbbd29a0e8U, 0x3ed887cfbe8cd4feU, 0x3ecacc40be3966d3U, 0x3dffe522bd2392e7U,
  0xbe514e29bd39a215U, 0xbe688593bda77572U, 0x3e43da2a3eb90573U, 0x3e1c99c4bdc3ecddU,
  0xbe8566013e7a8dc2U, 0x3e1fce4bbc23afb1U, 0xbd883d2c3df7ea6dU, 0xbed4fbbc3e03ceb2U,
  0xbe7b874abe814b3bU, 0x3e854e5bbea2a781U, 0x3e9719ba3c92a260U, 0xbe8b6e643e2bc61dU,
  0xbcd6c2323e2e3eadU, 0x3caab2043e8f7689U, 0xbe83a859bdb0807dU, 0xbd832c84be37efceU,
  0x3f000e87bd6f7fc3U, 0x3e0a73523db456a8U, 0xbef0a5863eab6ff1U, 0xbddb9c83be5ce73cU,
  0xbd8079edbea141cdU, 0xbe46387bbf17887aU, 0xbd773f2a3e1a3906U, 0xbc17a10a3c18871aU,
  0xbd0ab457be637594U, 0x3de1d99e3da7afd5U, 0xbe6c2368be2ff046U, 0xbd9617a23e6386d2U,
  0xbca6fe303e8f0113U, 0xbeafadf4bf118d24U, 0xbcf50643be11179dU, 0x3e4f9177bcada84dU,
  0x3db01518bd5df752U, 0xbd0fcaaa3e84f75bU, 0x3d85e931be503204U, 0xbe45aef8bbe8e85aU,
  0x3ddab2ddbdf4195dU, 0x3e0a7b843ddedfcdU, 0x3e0f60bb3e293fa7U, 0xbd1933913bbcbf73U,
  0xbe9eb02bbddeb197U, 0x3dc38ff9be3c4ae6U, 0x3dcac574be1a2a45U, 0xbcf6bda53e0ff698U,
  0x3ed6a8193eaff202U, 0xbe5e99c1bed48d92U, 0xbde06abbbee9004fU, 0x3e2d0909be5d23e9U,
  0x3e03a9b03df7f114U, 0x3d4f9ccebe0e97dcU, 0x3d031787be9637d8U, 0xbc8629d0bd7fa087U,
  0x3dfc5a4abd8c4762U, 0xbe1e954c3d2ac278U, 0x3e38f5223e31c56fU, 0xbe50d929be892166U,
  0xbbf4414d3e0b8954U, 0xbe49caa4bcaa18eeU, 0xbaf529fdbebeb62dU, 0xbe095a773d7b5453U,
  0x3b1793dcbed6f4eaU, 0x3f1703c63e3eb939U, 0x3ddd69713e61d0fbU, 0xbdcd3389be3f01e2U,
  0xbe4b9da13d0880cdU, 0xbe1d20debc8160cbU, 0x3db8163bbe743f54U, 0xbe3f1031bdcc3851U,
  0xbce5d9eabf2a406dU, 0xbd96b4753e15b609U, 0xbe2cec353d3fde00U, 0x3df3538abc27885bU,
  0xbe4455023dccd850U, 0xbe946ee7be939d43U, 0x3d6b046fb9307d92U, 0x3c096ca3be1b42ffU,
  0x3e2881d23dab13beU, 0xba06ef693e6e6307U, 0xbde7cc6abe80067dU, 0xbe0fd15a3e07c849U,
  0x3dcf45603ec30e13U, 0x3ca19db83d9f85caU, 0xbe20a4e3bed55edeU, 0xbe31657ebef4fd69U,
  0x3bfa0e1a3d7b50f5U, 0xbc9a18453d239de7U, 0xbc31f07a3b82ef9dU, 0x3d2ce9073d1079bfU,
  0x3e3aaf433e51c35aU, 0xbbc312c4bc894f36U, 0x3e0d5e633e0068a2U, 0x3d6f9456be4c6847U,
  0x3e832813bdff2a33U, 0x3eb2560f3e9b52e3U, 0x3e2a913ebd9582d8U, 0xbe3dcd953d99e3c3U,
  0x3d938b323d17d3e4U, 0xbd8a56cd3e452f6fU, 0xbd96832f3e09a4f5U, 0x3c70c5c5bd7b23ecU,
  0x3e13156c3e4e9d32U, 0x3bdef5b63e071585U, 0xbeb375d0be880215U, 0xbe01ccc23dbb0763U,
  0xbe9982b73e2335b8U, 0x3f364d473de8912aU, 0x3ed0f200bde5924dU, 0x3ecfa6c83c70e32aU,
  0xbee48269bd6aae87U, 0xbe3765f73e8a9688U, 0xbdb38dcc3f09d173U, 0x3dd46f843eb666aeU,
  0xbdb691a5bc3753baU, 0xbdca83c8bea14f14U, 0x3e13b6ce3ec22531U, 0x3eb3496abe83f79dU,
  0xbd7237363eb8cbfbU, 0xbc57ae4d3ee93003U, 0x3dc6e285ba917e26U, 0x3d27bbffbe2b8254U,
  0x3dab4368bd9ce138U, 0xbdca42ae3d92fa55U, 0xbed41234be9f99b0U, 0x3e8e344dbd547ae7U,
  0x3eb793efbe81fb1fU, 0x3e1f45e43eaa9563U, 0xbdf0189ebd1170caU, 0xbef391413e2fde03U,
  0xbcd93eb23daa400dU, 0x3e9848bf3d2f35f0U, 0xbe742474bb19143aU, 0x3e03eb8d3e1be98aU,
  0x3f3ff99b3e1ebfcfU, 0x3f19c90cbf47fe71U, 0x3f1cbb6c3f023961U, 0x3f6ecf263ee7ac61U,
  0x3f3d0f253f6e9a6cU, 0xbdbf83bdbeb5f1dbU, 0x3f1eaaa73e766dc3U, 0xbdec697a3f038c9cU,
  0x3f3458fcbce68d4aU, 0x3d9046913f70abb3U, 0x3f4da3133ef4c820U, 0x3f3c40b03f05f55cU,
  0x3f61f3df3f618f41U, 0x3f6777ff3e788e3fU, 0x3f450bf33e8577dbU, 0x3f4d4739beefeb33U,
  0x3f48dd933ea700ffU, 0x3f4117233f3a7955U, 0x3f6f2ba33fc8d30eU, 0x3f787cb43f16c13bU,
  0x3e2818503ea99ae1U, 0x3e5b81c33f2e1936U, 0x3e86980a3f21b383U, 0x3eb671bd3ecc04edU,
  0xbea5751cbe9ba37eU, 0xbf304bdabd42c960U, 0xbea13d71bc6bcbd5U, 0xbebf5c8bbe2a04eeU,
  0xbd1baade3e7cbabbU, 0xbd8adfee3ec02dc6U, 0x3f14418a3f0b2498U, 0xbb8b877d3ea656f2U,
  0xbd5abb253ef320fcU, 0xbf5ff1e9402e3eeeU, 0xbeaea2f53f00de9dU, 0xc002042a40ed5795U,
  0xbe6b3e683f02ca74U, 0x3dbc0f8a3f698880U, 0xbd06843e3ec5b270U, 0x3fcc1e06bf5b67f8U,
  0xbe042da1bf1f8c78U, 0xbd6941553e76ab39U, 0xbda3d9803f82ce3fU, 0x3da48fa13ec59013U,
  0xbf06ede9bed25e06U, 0xbf523f263e6359b4U, 0xbed2555bbe416788U, 0xbee3e7d7bf1e8679U,
  0x3f411590bf25aab8U, 0xbe4d433abf76b652U, 0xbe7614cebf787974U, 0x3f4ec23c3dfaa54eU,
  0x3d4c7d2f3e2bf2faU, 0x3e143732bf6a0909U, 0x3f0a60893de83d62U, 0x3dbe039b3d8e103bU,
  0xbdbc05cdbed2cc45U, 0x40238808be3617e8U, 0x3d0e3b2bbf063a78U, 0x3e50312bbfbf8cd4U,
  0x3ee587443d8ca018U, 0x3e02b26a3e2a862cU, 0xbd492f5f3f2947bfU, 0x3ec9c8393e6f584eU,
  0x3eb921913e681761U, 0x3e66f6743de4a0d2U, 0xbfdffd053e361349U, 0x3e9b3cd73cd3af09U,
  0x3ead37d83e975029U, 0x3f200b3c3f2c5f79U, 0x3ea014133e5d4f75U, 0x3f8044c8bf72c017U,
  0x3e97e2983f67ebe8U, 0xbd6d8fa53f7aee92U, 0xbea24db13f3da356U, 0x3eea44493e9d22dbU,
  0x3e975cb73e90efdeU, 0x3e47d9a4be8838c6U, 0x3efa2e5a3c956bc2U, 0x3ef8d4063ae98738U,
  0x3e5a7e063f75f8baU, 0xbe5ee9cc3dc8c58bU, 0x3b0af3623e80297dU, 0xbc9573fb3f0eaf7aU,
  0x3eff4d503ebfe7bcU, 0xbda3b0413ee70352U, 0x3a71173c3de7afbfU, 0xbe4c6c62beebd9c2U,
  0xbec2cbecbeeb769fU, 0xbec6c0813f3c67ddU, 0xbe8e80c3be5b0bedU, 0x3d443272be77283fU,
  0x3e3c52c63e7d2725U, 0xbf056d573e5c79eaU, 0x3f12ac193f3d7f6dU, 0x3e9cc2ab3f285b1bU,
  0x3ee7af593eb3c516U, 0x3f0777323e8ac136U, 0x3f006235be5c2e36U, 0x3eca6d533e8ab13aU,
  0xbe0940e53e96e07bU, 0xbdd461b4be6628feU, 0xbe7a2addbeb0ad95U, 0xbe340b60beac06daU,
  0xbdd5dccf3d26f57aU, 0x3d775afdbeb448cdU, 0x3e59c87fbe87155eU, 0xbe1f1894400871ecU,
  0xbe18f680bf50abacU, 0x3e695d17bf7b37f8U, 0x3e7c51a63e85f3acU, 0xbd1a37fb3e65216dU,
  0xbd0a71013edf8da2U, 0x3d6a59f83ec30ddeU, 0xbe0fe001be24c532U, 0xbe1721d9bd8b32eaU,
  0x3e2dce47bf2215d8U, 0xbeaddf75be45f3a0U, 0x3dd839c9be21888aU, 0xbd4bd027bee611bcU,
  0x4002565ebf473dbaU, 0x3d243c13bf9e188fU, 0xbcd4abb63e49b73fU, 0x3f428688bea88977U,
  0xbf38e60fbedf27a8U, 0xbf37d4023f82b911U, 0x3f33179dbeed19aaU, 0xbe01d16dbead763eU,
  0xbcfe2ff3bf7b0152U, 0x3d655d76bea12d0fU, 0x3ee581bebea7755bU, 0x3e99cbfc3f9cec27U,
  0x3d815c8dbe1ea72eU, 0xbfaade983ead28f8U, 0x3ebc420b3f8ff715U, 0x3e711825bdc2169fU,
  0x3dc00f503e2c94c5U, 0x3d5b5b893f0eea65U, 0x3f9d511fbdada94aU, 0xbe0af65cbe0a2890U,
  0xbe1526c8bfa811ffU, 0xbf3a4c773e8c0756U, 0xbe7ded2e3e854fafU, 0xbe3735413f0dab74U,
  0x3f75df74bea76afaU, 0xbeef9552be19dbb8U, 0xbf912c553e2eee46U, 0x3fbd728b3e1df4dcU,
  0xbe77e23a3e88d1d3U, 0xbf22cd343e085f90U, 0xbe97a333be949f6aU, 0xbdc94ad5bebaf880U,
  0xbd37ccc13fb576e6U, 0x3e681e0f3e35affeU, 0x3f53a7d03d5e3a73U, 0x3ecace57bf10157aU,
  0xbeff1d9a3da578b2U, 0x3ee733d83db5afc0U, 0xbd17617dbe9e3af0U, 0x3f52e87e3de5f9ddU,
  0x3f176b17be96c596U, 0x3f40d5dc3f8fb854U, 0xbec13ef6bd900de4U, 0xbed7f8a8bdbbca2cU,
  0xbecef63abf373884U, 0xbc8e63ddbeb59a3cU, 0x3cd5f282be5227fbU, 0x3dd5eeb1bedb7b6bU,
  0xbf25b00abe431aedU, 0xbed8a0c73e22e549U, 0xbcc22cc7becc0284U, 0x3bbdbc93bddcd220U,
  0x3f6c037a3d051868U, 0x3b3f186fbf78b9b5U, 0xbf7ddcd33fae3eb8U, 0x3e9e5a1cbe1bb90aU,
  0x3bf1a29abf16ff62U, 0xbd86b9073f168dd7U, 0xbf2e222c3efe9a28U, 0xbf55382bbe9e9b85U,
  0xbeee6954bed40db0U, 0xbeff4d79be11c03cU, 0xbecb6428be77869bU, 0xbf58e3a5bf08f2deU,
  0x3e779163bec95064U, 0x3e8d206abf2b63f2U, 0xbfe77e023e7e48caU, 0x3f8540503e9d4a79U,
  0x3f27c9ba406ce380U, 0xbfeded82bf8e1819U, 0xbe803e1fbf623526U, 0xbe812168be8105c9U,
  0x3f3af41abeccab92U, 0xbe94813cbf0c77efU, 0xbe8d9453beea6afcU, 0xbf2ac66bbf2ff4acU,
  0x3e8dd854bf038828U, 0x3e6ac3f73f126f86U, 0x3e189beb3ec3b161U, 0xbf1efc453eaee5c6U,
  0x3e4426133ec4d270U, 0x3f97e4253f880bcdU, 0xbf3ab4a0c00ae600U, 0x3d8f337e3f30ec5cU,
  0xbec6ff983db71639U, 0xbf280c043dc44b43U, 0xbefb7c9cbe9ff324U, 0x3f66a2e53ed60ad4U,
  0xbde9baef3ec133efU, 0xbd48cc10be38fddcU, 0x3f8671283e9028fdU, 0xbd0984c73e74ea6fU,
  0x3c02e4f43ed029c6U, 0x3e334149bdd435daU, 0xbf2c24cbbc43f8d3U, 0x3f94dd0fbe4adb93U,
  0xbebecd70bd62da87U, 0xbf0c52703e8246e4U, 0xbec9e592bf6d6954U, 0x3f12602e3ec0afadU,
  0xbc509d013f05342eU, 0x3d81f7a63e8a9391U, 0x3e5e42933cc60c54U, 0xbd73d8cebdde5f41U,
  0xbe7726623f85e098U, 0xbe52838cbe170a0cU, 0xbe1a7770be14c571U, 0xbe5dbbbfbea9db1eU,
  0x3e24f58ebed3439dU, 0xbd6706c3be9a7aeeU, 0xbe1bd1d2be681eaaU, 0x3e1ead58bf408987U,
  0x3e047a9cbf5e7e3dU, 0xbe1a1086bcff5037U, 0xbf2e12833dbe9555U, 0x3e5e040b3dcf892fU,
  0xbe3168dd3f03a195U, 0xbf940614beba456eU, 0xbe37dcb43f7dfc6cU, 0x3ec805443d06794fU,
  0xbfbcfc953fa2ada8U, 0x3f174cbcbf6c3f5bU, 0x3fcce00e3e30197cU, 0xbedc67803e9317d2U,
  0x3f73c8a2bf986920U, 0xbea4b66dbec4c878U, 0xbf89929abf97d9e7U, 0xbcf224703f7d5f2fU,
  0x3fdf2be2bf45bbdeU, 0xbf3f2985bf443978U, 0xbe397ac83fb3e6b7U, 0xbe28407dbe8ab7a0U,
  0xbe8da527bf045c56U, 0xbe97cf8ebf25026dU, 0x3d277f94be7120b7U, 0x3ff9e0fe3cdc3d10U,
  0xbd868d903fc28606U, 0x4014d2203f81f28fU, 0x4013a9b4bf4f84feU, 0xbe87c6debc2d8488U,
  0xbfa27329beb0c9cbU, 0x3ea1bc60bea40312U, 0x3fc53b033ef371e8U, 0xbf813efb3fe28076U,
  0x3ed2ec083ec03536U, 0x3ed990fcbf1c87a4U, 0x3e3956be3dee5002U, 0xbe56f702bf3cc5c3U,
  0xbe41b7b53caa1685U, 0xbe8b234e3c560d23U, 0xbb87580cbe17ea84U, 0x3cd01fa03e9e6751U,
  0xbde71c133eaff95aU, 0xbe55d54a3eb93fe0U, 0xbe8742a53e31952fU, 0xbca231303eb31584U,
  0xbe60e9fd3dbf998bU, 0x3e123bedbe016251U, 0xbd18b7a7bdcc8940U, 0x3c83fcc8be19872eU,
  0x3e1cbee53eb08a44U, 0x3dd53a8f3e2be9bbU, 0x3ee6c2083f80dbafU, 0xbe4467913e7fe4c5U,
  0xbe381ca53d5b152bU, 0xbe2ce9d7bd06c5edU, 0x3e5a75bd3f1f15daU, 0xbeb78f1a3e3ce7a3U,
  0x3df1f9ba3e7ad285U, 0x3b5734c93d05d9b5U, 0x3ea005a73e00abc2U, 0xbdcd57e5bda55b77U,
  0x3e6257023e0670d2U, 0xbe8c3439bdf1e726U, 0xbd66ea353ede65daU, 0x3e431ae63d1c4f4eU,
  0x3dfe20fc3d6c563fU, 0xbebba2cc3db6ad97U, 0xbdd04a8b3ef0da5fU, 0x3e3df4da3e323e37U,
  0x3dc14e643e26045aU, 0x3dae072d3e38ce95U, 0xbe83cf5b3e00719eU, 0x3e889fc53e7435b9U,
  0x3ec5a0623e5c0378U, 0x3ed880f73d24357dU, 0x3dc75d843e801264U, 0x3dcf57473dbda70aU,
  0x3d5a76b63eaeb2c1U, 0x3df19a273e1a2202U, 0x3e2cfce13d8de098U, 0xbe85b8ae3edfc002U,
  0x3d11181fbd4ece3aU, 0x3eb9e1a03e73028aU, 0x3d771afebe01c6e2U, 0x3e2feaba3c3d5f5bU,
  0x3e57b7473dd84a96U, 0xbe7140163d8b52c8U, 0x3ea9ea43bdc419beU, 0x3df02c0f3db5f5f8U,
  0xbe898e89be7ce85dU, 0x3be44a983e668a64U, 0x3e2e73273c42ed7aU, 0xbe5d3e97be29994eU,
  0xbdd79ae9bda178faU, 0xbba6e9ff3d83baa1U, 0x3d0cf971be9cee0dU, 0xbd09c7b53c05aa23U,
  0xbda6bc04bdc0b518U, 0xbe001089be83d969U, 0x3d9f543a3d585542U, 0xbd84f7babe81a4b0U,
  0xbe394d17bd949c0aU, 0x3d845bc3bdc48e77U, 0xbe5a0eb23e44f951U, 0x3d9b16acbd983754U,
  0x3e2ef59bbda68329U, 0xbcac1736be69a3faU, 0xbe7455993d84b4ffU, 0x3e4cd3ff3cd411f5U,
  0xbe7df35a3ea3d4f3U, 0x3d2574e9bdef6bd2U, 0xbd3132b5bd0fb829U, 0x3e3380ee3d0bc69bU,
  0x3d2614033d4a47ddU, 0xbdb6a676bd3203c6U, 0x3d6f6569bc167762U, 0x3df812c2be5ed26dU,
  0xbdbc6227bd7bf121U, 0xbca479d33e0108eeU, 0xbdcc6d6b3e519b48U, 0xbe2fce2a3deb6d5eU,
  0xbd673d383dc334b4U, 0xbe2439dabdd0bc5fU, 0x3a292801bebc7275U, 0x3d6b7571be6928daU,
  0xbe3b0144bd82f97dU, 0xbc1951f03df06d1dU, 0x3d0b2ec3be259d08U, 0xbdca520bbcf3e7dbU,
  0xbdb1cd0b3e27e8d1U, 0xbdb1a41e3dcaf38aU, 0x3e4e6344be256f46U, 0x3e4c3b013de2f80cU,
  0xbe0b7633beb8ed2dU, 0x3e04acd73e32962eU, 0xbe3e2cca3e6ebcefU, 0xbe418064be47c093U,
  0x3e46aef03e9a5d39U, 0xbd8090bb3e550a15U, 0xbe952a2d3d464de2U, 0x3e2284e2bd9e23cbU,
  0x3c9bff31bdbcc86dU, 0xbebf017ebe349f8aU, 0xbe205d3bbe3a2d90U, 0x3ddf25253e8fda28U,
  0x3cb9235c3e8642daU, 0x3e8763623eacb1b1U, 0x3e65d3ab3e4e51edU, 0x3dc221dc3e36850aU,
  0x3dfcae3b3c39dac8U, 0xbdb6c209be2504d9U, 0x3e6e481c3e8c06fcU, 0xbe30f7713e84439cU,
  0x3e8a7b643ddfb777U, 0x3ea1c4c93d55de6fU, 0x3ded36543dbdf638U, 0xbeae458fbe1e06a8U,
  0x3dd0d5ecbeb83f9cU, 0x3c78e961bd3ecfeeU, 0x3e5e387c3d9263e9U, 0xbe837be83e1a1ad6U,
  0x3ec617d53e992342U, 0x3e120548bd9c372aU, 0xbe73c28cbd7681b3U, 0xbe72d6a2bd98322fU,
  0xbe8f4a71bec6a438U, 0x3e5a4824be21d234U, 0x3e33945cbd09ad05U, 0x3e1afe5dbdfb55d6U,
  0xbe8a7a58bc610ef8U, 0x3c0896393e6ef816U, 0x3eee122fbe062a23U, 0xbed6aecbbe03cd51U,
  0xbdfc8269bd87f232U, 0xbe1f19e7bd58fbaaU, 0xbd6379f7bcc16b85U, 0x3eaa17b3be293b8fU,
  0x3e056b713e9820d3U, 0x3ea7d63a3aaf90c0U, 0x3d7ceba2be6fd23fU, 0x3e30d0cb3d13b7ddU,
  0xbe7970fa3d8034a2U, 0x3e634a2d3e41839cU, 0xbdbdf42f3e638b05U, 0xbe020358bd8585deU,
  0x3d8a870d3e3156c1U, 0x3d5e86eabe37e711U, 0xbd8fcdc33e5a729aU, 0xbc4c694ebd72932fU,
  0x3e3167b73cf69ae4U, 0xbdc72209bdd9cd4cU, 0xbde72a623d4ab6abU, 0x3e1143d53e401289U,
  0xbe03a1133d370ff6U, 0x3e71efaabc54a4ceU, 0xbe57def53e8c9676U, 0x3ca9543ebabb6b41U,
  0x3e4e3baabe7b24e7U, 0x3e109ea9be8c6ae9U, 0x3e9821bb3e28937dU, 0xbe22741a3e89ed31U,
  0x3d91e69f3da5070dU, 0x3e1dc9fb3edb2937U, 0x3e47c6bdbdec7881U, 0x3ceadb58bea0fca2U,
  0x3ea34875be044180U, 0xbd310627bc7b96fcU, 0x3e3cb8243e134217U, 0xbca385803d20f68dU,
  0xbcac86edbe4cb366U, 0xbaf5c9ffbe5cc3cfU, 0x3dfff1cfbc996775U, 0xbe1a68b93c6f3496U,
  0x3e0462f3bd162d03U, 0xbd3d36a63e3c5071U, 0xbb8dd1e63cc7da6bU, 0xbd21e5e03d3d7080U,
  0xbd54e8b6bea43832U, 0x3dc34b293e5fdf2cU, 0xbc6bc3073e9a304fU, 0xbcd470bb3e0ff2e8U,
  0xbdef423ebd6599c4U, 0xbe305558bdce8fc7U, 0xbde00361395e116aU, 0x3dd16bc53d33a089U,
  0xc03b2c6ec00e4586U, 0x3ee307dc3d347172U, 0x3d8f337fbfa30b76U, 0xbc55c9f8bfce6656U,
  0x3c9feab5bd8e25c9U, 0xbc365012bc547150U, 0x3ca7fb163d178b33U, 0xbcc2c97d398f23d5U,
  0xbdca81e33c260094U, 0xbcb97318bd96ae22U, 0xbe865cd8be1b5345U, 0x3cd6edc53d2ef870U,
  0x3e59984dbe60d8dcU, 0xbe0d266b3afe077aU, 0x3e067bf9be1cccf2U, 0x3eb138a0be403778U,
  0x3e01cd5a3e610a4dU, 0xbda52a093e30c809U, 0xbee478fbbe3a3f7dU, 0xbdb29ca33e3ed44eU,
  0x3e1f7c8a3cd048a8U, 0x3da5be0bbe865600U, 0x3e529036be9e20c2U, 0x3db295d13dbf2734U,
  0x3e169415bdf10b5bU, 0xbde8597c3dcdd31fU, 0xbed42443be959d80U, 0xbc407a4cbe5e7155U,
  0x3e8a2d36bdd13d25U, 0xbd9e84683e4be610U, 0xbda4eb01be182460U, 0xbd8c30333cb7eeafU,
  0xbbcce6d8bc4394f5U, 0x3e5820603dfff593U, 0xbed85aa5bbbe513fU, 0x3e33c69abb5e3ba1U,
  0x3d6a62753eb03f8dU, 0x3e409717be68a009U, 0xbe2fe606be59d27dU, 0xbd106062be904d2aU,
  0xbda304323e2a12c8U, 0xbe0eda00be072a0cU, 0xbd1241223cdfa644U, 0x3e5d5203bdb298feU,
  0x3b539178bdcdcdaeU, 0x3e11be823bb73e83U, 0x3d9872363aa5a0a0U, 0xbdc4f9733cc3f0c1U,
  0x3d6eb8203dc3d861U, 0xbd77d0ac3e38a3bcU, 0x3ebc73133ce4ecd9U, 0x3e9d9a903ed83050U,
  0xbe1e871fbe00f0d5U, 0xbe0ea26dbd758f44U, 0xbd0f412c3e39e7edU, 0x3d2fdf8fbd48da32U,
  0x3c21ae6dbdaa6eceU, 0x3e32fce7bc9cd6d0U, 0xbed02ab93d4b7232U, 0x3e74a2ae3e1c6df6U,
  0x3e54ffe03e73db10U, 0x3d53d1b53eac745dU, 0xbec38e323e753d51U, 0xbdd17524be89b38bU,
  0x3e55bf33be0eb3adU, 0x3e1fdb5e3ebe701dU, 0x3d8b5e83bd02ce95U, 0xbe5a2c6e3de2c28eU,
  0xbda49dddbe25dc07U, 0xbe041ef23d9d965bU, 0x3c915a8a3e602ceeU, 0x3c3c0948bdb9110cU,
  0xbe5a3c163e3e5fceU, 0xbc1c82adbe4b3bc3U, 0x3f128302bd83f2bdU, 0x3e451317bdd7f07cU,
  0x3e4d2f08bcd017daU, 0xbd87874a3dd87564U, 0x3d86f36bbdabf81bU, 0xbe147bd23e17578fU,
  0x3eacda7b3d68827aU, 0x3ed416e93e811db1U, 0x3dec0834bd865104U, 0x3da8b57c3def2786U,
  0xbc5ca2083cb2f9d8U, 0xbeba1b043e312afaU, 0xbc81ef57be38cd96U, 0xbcc667723e42c59fU,
  0x3e50b1e6be7e3216U, 0xbea179723d9a9e6aU, 0x3e2bf96a3ea38bbdU, 0x3c9c513d3ea9e976U,
  0xbdb71d203e4cc129U, 0x3e288c94be7ef9f7U, 0xbdfc07c63e0163caU, 0x3e9dac12be21a088U,
  0xbe235fb03d751125U, 0xbd87d13cbe6c1c09U, 0xbca41ec73dfaff04U, 0x3e39f9d4bdd61c76U,
  0xbd9059f13e1b1606U, 0x3d459705bea834aeU, 0x3de24025be383825U, 0x3ebb0c5cbed2c278U,
  0xbd329675bcb6ba94U, 0x3cd0148f3e11c268U, 0xbcfd7e063ea5d1d5U, 0xbddc00a8be64fc68U,
  0x3eb2316c3d2f8e0eU, 0xbdd895a43ee163aeU, 0xbd82a8d7bdbf6291U, 0xbe7836a33e38cd4bU,
  0x3d2739d3bd8159bdU, 0xbe022e633e28f9c4U, 0x3d0b23fe3d234847U, 0xbe23640f3de1a3baU,
  0xbc2b81d23e8cfd1dU, 0x3f08b8733eb635afU, 0xbe1b2d303e8f3330U, 0x3edf4a3d3e35da7dU,
  0x3e084fad3e004ebfU, 0x3d1b07f73e3493cbU, 0x3d288967bde7e991U, 0x3e2c885fbe56e053U,
  0xbcf0e1ac3df9d4dcU, 0x3e2553e1be8680e8U, 0xbdeb8073beb3c898U, 0x3e30bfe5be0d44daU,
  0x3e32ebae3d090cc0U, 0xbda8718e3e070204U, 0x3d2465bfbde1f546U, 0xbe1f2b623e1c8a17U,
  0xbd113abe3e5f6caeU, 0x3dc841f4bd3a2700U, 0x3ec320af3eb1d95dU, 0xbdbe44d73df57e04U,
  0xbd9a0c073d652f4bU, 0x3cf41a57be994340U, 0xbd6debc23d03885bU, 0x3e4360eabda17c64U,
  0xbe1bc4373d9d4fe4U, 0xbeae63b63d90a1a5U, 0x3e4904cebc7e12d4U, 0x3d1dbc19bcce3721U,
  0x3dabcc0dbe3109b0U, 0xbce9f11d3ef4ea0fU, 0xbf40b45c3d9f548eU, 0xbdda90193c94a95fU,
  0x3da7096cbcdb522fU, 0xbf0ac895bde64213U, 0x3d380392bd31c436U, 0xbe2bee133cfb05cfU,
  0xbd3d4d3d3e49d895U, 0xbe6ef966bd88242eU, 0x3eb47fb4be81e5c4U, 0xbe6404d4be2ad3cdU,
  0xbe4a98483e93173dU, 0x3ea8ca98bd95182dU, 0x3dc21c633e45eb0eU, 0x3ed9296cbdb11f9bU,
  0x3eac860c3f0ac7fbU, 0x3e9bfc443e02afb9U, 0x3ec29642bd0b6df1U, 0xbce19613be102b68U,
  0xbe1ef7323d89a330U, 0xbcf790d5be27ee30U, 0x3c1202ff3bf5c160U, 0x3e085ceebd764ecbU,
  0xbe4f7973bc70016bU, 0xbebd5ae8bef5d51eU, 0xbe8929b83c3137d6U, 0xbd2ac1edbe1f2448U,
  0x3e1bcbe63da172a2U, 0x3e19d23e3e08b452U, 0xbd53c72cbe0be3a2U, 0x3da906e23d24a055U,
  0xbdc64ab73e60c521U, 0xbe603687be6c394eU, 0xbda7fcbdbe1ad6b9U, 0x3e1388143d58e1fdU,
  0x3e73b1093ab7d846U, 0xbe5f65c83e9af534U, 0xbd332673be8bcbabU, 0xbeae5a293e752252U,
  0x3d2fdf913dad25c8U, 0x3e23285abea363abU, 0x3dbe1737bda865a7U, 0x3e2490b13d01b15bU,
  0xbde9986e3dbd4368U, 0xbe998ca1be1e1ea5U, 0xbd6238f93d6f2925U, 0x3dc99297bdc7b0fcU,
  0xbeaeb0a33e7b143aU, 0xbe3c7ccd3eb2e920U, 0xbd8d854c3e53a665U, 0x3d032d813cfc29f0U,
  0x3f450f143f88f0baU, 0x3e318fe43e991cfcU, 0x3eede7ae3f3a1ac6U, 0x3f30c46a3f48f859U,
  0xbf3ce6833eea6155U, 0x3e864d913f828286U, 0x3eb9b5f13f506999U, 0x3ebc84ed3f339f00U,
  0xbe3c1a833f3ac1e7U, 0x3d1011f13f6257e0U, 0xbdf3f23a3f26ba77U, 0x3f3e1f1d3f115626U,
  0xbf19d59f3ed38e39U, 0x3f6bba713ed89316U, 0x3f46a9533e136c77U, 0x3f7349e43ea20b03U,
  0x3f532f593e06b4a5U, 0xbec9d903bdc1d624U, 0x3ec1a0dd3f095d64U, 0x3e91c3463d699f66U,
  0xbe41349b3f66055dU, 0x3ef6a8e33f4ba58cU, 0x3f4b6dd23e4a46cdU, 0xbe9b82bc3f1ee048U,
  0x3f9e7b273f6c8c8dU, 0xbe7919b83f256796U, 0xbe5b436d3ee8e21cU, 0xbfcde8c7bed473c4U,
  0x3f0a0fcfbecf33deU, 0x3e8ec61f3f7acb4aU, 0xbf2f13eebedef176U, 0xbe8025d4be9cab45U,
  0xbe01093ebdaac971U, 0xbefe75cbbe4c52a7U, 0xbf23c546bdc5ee35U, 0xbf20d4f5be772cb4U,
  0xbedeac7fbb9baa6dU, 0x3e8d411cbbe90af2U, 0x3e0b3e673eeac115U, 0xbf22d3c13ecf778cU,
  0x3ccd39203e6b4101U, 0x3db4b7c13e59ed10U, 0x3e6bab0e3d0fc45bU, 0x3de23fb63d892740U,
  0xbe06a8cc3fa45b1bU, 0xbfa149dbbe1fdd14U, 0x3bbd27a13ddae744U, 0xbdbcd77f3ebdb457U,
  0x3e07d1ce3e9676fdU, 0x3c3748b93f55efc8U, 0x3cb965713d6ff000U, 0xbf7af660bf2d3658U,
  0x3f6f0a52bf06e19fU, 0x3f401da73ff2a468U, 0xbf57015abdec0f58U, 0x3d5d2fffbd71ccdeU,
  0x3e184fa8bf5cffe7U, 0xbf0fbaa4be69d35fU, 0xbd8be1fdbe28a9edU, 0x3ca5e643bd735c72U,
  0x3ea82dc53e6cc7f8U, 0x3e4039ef3e3aee59U, 0x3e4ea25dbf5b3d0eU, 0x3e27382e3e102b96U,
  0xbf985a773e2083b2U, 0xbfdcaedf3f74de0bU, 0x40181dad3fa393adU, 0xbf5b04203f0a4079U,
  0xbfce2c5f3ff268c4U, 0x3fd886d23efd97f6U, 0xbf2454863ec9992cU, 0xbf130f66bc8791f6U,
  0xbf9b2b913cb2ce8dU, 0x3d08ffbbbe4b2875U, 0x3d825c313de2b550U, 0x3e8027103f012878U,
  0x3d9288493e75bb8dU, 0xbd4e872a3e3dff13U, 0xbdf184893df37f7fU, 0x3fe166223e3dcb2dU,
  0xbdcfb82bbfc75822U, 0xbebc2edc3ec92c6fU, 0xbee52364be532644U, 0xbe9cad6abd2826edU,
  0x3f07a08bbdac52d8U, 0xbed746473d710a23U, 0xbea783f3be15a52fU, 0xbd96fe1ebe3543c5U,
  0xbe1bcc0dbe06b97cU, 0xbe2cc0603f2a8e39U, 0xbdf6d113be7fe711U, 0x3eb685ddbe47709aU,
  0xbe48a67fbd52b2b0U, 0xbe83c9a7bf5ce7a3U, 0x3ead2e68be527093U, 0x3d07bcef3fb066eaU,
  0xbebb668e3eff7991U, 0xbe64152e3ee87167U, 0xbec39febbf279a84U, 0xbee12a053edb08a2U,
  0x3ea0a10c3f06a147U, 0xbe3ed4643f46766fU, 0x3ef13f823f0d28d3U, 0x3d06ddfa3f147d75U,
  0xbe39abfb3e8bd85eU, 0xbf32f9c8bf0d7991U, 0x3f1cadc7be7b808bU, 0x3f8470113d943729U,
  0xbf512c373da76e41U, 0x3d864bce3f32d9ddU, 0xbd184bf43ebe35b3U, 0x3fc484efbd3ad318U,
  0x3e0a7363bf04309bU, 0x3e154f0dbed67ac9U, 0x3e6976853ec1bac5U, 0xbed652a33ea5f137U,
  0xbf11e9e63e01b71cU, 0xbeb22932be754e21U, 0x3e2f1c90beb2d81aU, 0x3e6002d33fb55ca6U,
  0xbcd1b94f3e2d7612U, 0x3e6d372b3ea8275bU, 0x3d4982573eb294adU, 0x3e9f3bf8be896df0U,
  0x3e88d04dbe941433U, 0xbf1234d43fa61307U, 0x3da84b15bd89bf77U, 0xbe0fe54d3cb922f3U,
  0x3ed43856be493c7fU, 0xbdccdb2fbf74db05U, 0xbcf1a3043f88a9c9U, 0x3eba63bdbe5da1bcU,
  0x3e5bf1753f0f6c9cU, 0x3e4f2b903ec553feU, 0x3d43d186bf8092d8U, 0xbdd6809b3e3d131dU,
  0x3f4bb8933e1af311U, 0x3feddcb33e532f74U, 0x4039f15e3f9cc5d8U, 0xbe5599823f43a4b2U,
  0xbe016e873faf8ff9U, 0x3d90fcfd3e436eafU, 0x3e7c68e13e8bae53U, 0x3ea683fc3eeeda25U,
  0xbfc6d095bdad7121U, 0xbd4f9677bd8f5395U, 0xbcaf17a94024bfd9U, 0xbfd8aaf23ea8d6d5U,
  0x3dde20353f2a0df2U, 0xbd96acf5becd8accU, 0xbf288b66be9d6cf5U, 0x3d4afe9f3caf1826U,
  0x3e88e862bf1061e3U, 0xbef0f8023e295077U, 0x3d1e18963c4314afU, 0x3cd1f1693ef20385U,
  0x3e9cb8013f0bad8eU, 0x3e07b3063f067d05U, 0xbc183a1c3f31b4c3U, 0xbe1e7ea5bd183c15U,
  0x3e8bfe01be16d692U, 0x3eac65fabf852acdU, 0x3eef19ce3ed58962U, 0xbf17770b3e8a39a5U,
  0xbebf03cfbfabf385U, 0x3f81292b3ee05661U, 0xbbfa4e803ead97f4U, 0x3dd75d613e84acb4U,
  0x3d27ea233f0c77bbU, 0x3ea8cb3c3ed07725U, 0x3d228a053ecd2e2cU, 0x3dfdf4f93de6f2e5U,
  0x3e6c91713e2beffbU, 0x3e95f0e6bf0a1fa3U, 0xbff07899400f247fU, 0x3eb03d8ebe5156a8U,
  0x3e8edbfcbeac52cfU, 0x3e2452c53f1ecc3dU, 0x3dc6a6df3eee7093U, 0xbe5bfc6a3e4c1c29U,
  0x3e1e61fc3f0c1626U, 0x3e2285393ecc6b05U, 0x3e63a7ea3f2d4fdfU, 0x3f73880e3e649df7U,
  0xbd5026b4bf605066U, 0x3e873a173e5b9c48U, 0xbef9b11dbe90a738U, 0xbeeb711fbe01c4ebU,
  0xbe7ceaf43f4c11dfU, 0xbe2e3b81bdadb60eU, 0x3dc25da6bd1e4b10U, 0x3debbc6b3efb1043U,
  0x3e95dc35bd635fb6U, 0x3e5b7e76bd0d0aa0U, 0x3e9e8b6d3e8c0e0dU, 0x3efdab303f2d3ce6U,
  0xbe5993b63edc00d3U, 0xbc862863bdcfd365U, 0xbe993a2a3ef486d1U, 0x3e300f003f05fd0cU,
  0x3db8ce0f3e5c174eU, 0x3f1624c83f00ee83U, 0x3e6da2493e48cf15U, 0x3dad54cf3e84b605U,
  0xbf9268bdbf14add1U, 0x3f44ef6bbedc2a11U, 0x3eb044093f941844U, 0xbf20bcb03d92731dU,
  0x3f031b143d60d8e6U, 0x3f01364abef4c83bU, 0xbee9e91c3c960d5cU, 0x3f004bd03eec96a0U,
  0x3f090770bf546f39U, 0x3f0c7f4cbf52c5bcU, 0x3f63a4fb3ee3b004U, 0xbd9023c8bdb8ea61U,
  0xbf45e2933fa0eed3U, 0xbeaf43f7bec6e2faU, 0x3eef07953c957b08U, 0xbc821d4ebf50e28dU,
  0xbe5760303f4d52dbU, 0x3ecedf73be352a9dU, 0x3e1ed6d03e92102dU, 0x3d24e3d33e68302dU,
  0xbdcfb3813f7513fdU, 0xbf80a566bef213bcU, 0xbeb4fb22be86f9b7U, 0x3eb75a6a3d9a32beU,
  0xbe8bc6b1bebd1642U, 0xbee9921e3ed0386eU, 0x3eabc8cc3e5bde44U, 0xbf845cf1beb68754U,
  0xbce34d093e3cc57cU, 0xbe31f7813c58ed89U, 0xbf59f12fbd9dd5a1U, 0x3d9188bbb83a0d6cU,
  0xbe1986a63f33f13bU, 0x3ec8f6863f83b797U, 0xbdfa573b3f34f2a8U, 0xbedddcd23f32d675U,
  0x3d341662bea672b0U, 0x3ebedcdf3f99a7e7U, 0xbf34ba2cbe6dde54U, 0x3fd67d3ebf1e2f10U,
  0xbfa3dd513f9ce742U, 0xbef3a359bf56f2e4U, 0x3f9e0bc7be02abb5U, 0xbd9733043f9933d5U,
  0xbf22df653f7ed582U, 0xbf081fd73f40b7b0U, 0xbf52669c3fb186f7U, 0xbec269c4be90393aU,
  0xbfa1a6ca3f270e96U, 0xbfa33ce83dbb83beU, 0xc0297e7e3f49fd75U, 0x3e61a294bf1c3c13U,
  0xbef0d428be9ad230U, 0xbe7564e2bdfa6440U, 0xbeb31bc83fa406d4U, 0xbfacf312bb104c80U,
  0x3f3252d6beb1af06U, 0xbe797764bfbfa5a6U, 0xbe856e283eb2e651U, 0xbf114ee23f9950acU,
  0xbe08c8ac3f5ac5faU, 0xbe514a653dfdbd2cU, 0x3ec8f9a23e180972U, 0x3e72e26b3db63989U,
  0xbf0c5c733f3a3417U, 0x3d882f873eb8ca00U, 0x3edd5ba7be870d70U, 0xbeaf39393e1ce630U,
  0xbe56331d3dbf986cU, 0xbdac8780be1fb45bU, 0xbeb6e1f63d624010U, 0xbe3300653d728457U,
  0xbe4fe0d3becc69c5U, 0xbe71f095be96cdefU, 0x3f0aad9dbe7136ddU, 0x3e88f2ccbe1cbd77U,
  0xbe965d773e228e05U, 0xbe5caa693d90bd80U, 0xbef104443ed92f0eU, 0x3bec6414becb6c14U,
  0xbe0e02ee3e342442U, 0x3ccf843abf0977f7U, 0xbe1e74f63ebf779bU, 0xbe88bdab3eb6683dU,
  0x3c82aa1f3ec3261dU, 0x3ef40e44bda18a2fU, 0x3f0435cd3ed4364cU, 0x3e8b56463e467b8fU,
  0xbf343f6a3f08ce17U, 0x3a0eabd9bd30e959U, 0x3e2fb18f3ec19138U, 0xbe06752fbe9a21d1U,
  0xbec7e6dfbe933bb7U, 0xbc490a53bf1241ecU, 0xbec155f93d2bf800U, 0x3f1df0bc3ec32828U,
  0xbef97716bd308538U, 0x3eafaaacbd8ac6a8U, 0x3ef48f85be5e2517U, 0x3f8a558ebeef6682U,
  0x3eabb2c8be31b693U, 0xbe560dafbe353f74U, 0xbdf2bc9dbeff7ee3U, 0xbe70a21ebdb7d118U,
  0xbe108d60bed98f4fU, 0x3ec3cd5cbeb33c4bU, 0xbc3b11bf3e1a94fbU, 0xbf3f21d63d129934U,
  0xbd7c52ccbe05f3e6U, 0x3e026fc8be81e7d1U, 0xbdead3d1be91a0b2U, 0x3e29fa91bd4ac416U,
  0xbe8b4845beab5092U, 0xbe03308cbe93adc2U, 0x3e100d30be0106d3U, 0x3bc3a0c7beca7367U,
  0xbe8df2e53e6d1625U, 0xbd95aec53daf02ecU, 0x3e8692da3ed755c2U, 0x3cf5dd80bdcd9d53U,
  0x3e9fd7f83e1aeb98U, 0xbea6670a3d8127b5U, 0xbbf2f0b2be1c8c4aU, 0x39ac3d933e5740e6U,
  0x3e13e422bda07aa5U, 0xbe67e0533e669f8eU, 0xbbba3e393e62350cU, 0x3ea67e403e7f6b8fU,
  0x3eaf2825be0fc10aU, 0xbc9976103e12ebb4U, 0x3e691358be8d58d0U, 0x3e6dfd76bdeb5766U,
  0xbd9e6b75bc90411dU, 0x3e572e78bd9bb475U, 0x3d1c57a3be16b42eU, 0x3e637e62bd072b4bU,
  0x3eea8e683ecbb969U, 0xbe272e3ebf28458fU, 0xbe02f2b93e0e5b77U, 0x3ece46fbbdab37efU,
  0xbdbdfe7dbe944954U, 0x3e70d728bd06773fU, 0x3cedd8debdf96215U, 0x3db760e73eb31251U,
  0x3d85df4b3cf7123fU, 0x3e896edebe8dd99cU, 0x3dd9745dbe32dd10U, 0xbdee3d52be33e8d8U,
  0x3df6b6303d31ec06U, 0x3dbc53ec3e14373dU, 0xbcd883a93e874b61U, 0xbc9d87303e447b43U,
  0x3ee66b64be8e3802U, 0x3dfd0a8b3e9e9308U, 0xbd15a4003df57f69U, 0xbe52fbb6be3ba9c2U,
  0xbeafec3ebdc61f03U, 0xbe5591b43dc3a013U, 0x3ebc39183c98e993U, 0xbe8fbebabe8acce3U,
  0xbe427244bba08e34U, 0x3e2cd5c13ea7e6c8U, 0xbdc0b652be89fe45U, 0x3e066d15bd8994acU,
  0x3d8e8bac3e9098fbU, 0x3e2a4da8be01e73eU, 0xbe0adf25bea2f030U, 0xbd4908d53ef86011U,
  0xbdbe3268bec81665U, 0x3d833fe1bbfb571cU, 0xbdfafc803dd3b99dU, 0x3e84f773bd37d077U,
  0x3e616d58be53d5d3U, 0x3e6c91c0bda2abe0U, 0x3e3b5c3abe0c08beU, 0x3dd173d7bc869e47U,
  0x3e224354be0f1207U, 0x3e16da65bdde4c5fU, 0x3e5a71bf3f0e4a72U, 0x3d0d3314bcc64a33U,
  0xbf05e668befc41afU, 0xbf6328233edcee8eU, 0x3e1a4b71be10f30fU, 0xbed2f586be8f277aU,
  0x3efd6928bc84c8eeU, 0x3efd04c2bec34c21U, 0x3e2b243dbf20e2afU, 0x3dd6ba7b3ea7c926U,
  0x3ec0e21f3f09447fU, 0x3da65cf13f03ee76U, 0xbce4b7b73e572a3eU, 0xbeebcbe8bdd754a0U,
  0xbf09615c3eb15ccbU, 0xbeaefe053d11d159U, 0xbe8d4a1abd7260d3U, 0xbf1354d03e829008U,
  0xbe92938cbd946d7fU, 0xbc5319a93ed34bdbU, 0x3e82e675be0ebc5cU, 0x3eeb09da3eaa8dcbU,
  0x3d69f6693f2c35a9U, 0xbe5ecc9d3e385bccU, 0xbde6de0dbda13c59U, 0x3e69221fbe400c61U,
  0xbeb210d2be8dbc00U, 0x3dd6a3703e52f7b5U, 0xbe9932bbbe878db7U, 0xbe943ddf3cc6eec7U,
  0x3da98c8cbefbd7faU, 0x3e33e5bbbf118a49U, 0xbe3ef1d63d42a04bU, 0x3d9111263e7e7b48U,
  0x3dd022d5be3336baU, 0x3f0e520f3dacea95U, 0xba93e2b1bdde783dU, 0x3e7853c63ec2741aU,
  0xbd88c39fbec5ed95U, 0x3dcf0f3a3e8ed078U, 0xbe0916193de2f3bdU, 0xbe9bd76bbe258730U,
  0x3e88cbf8be1355dfU, 0xbee7f3ed3ea7703cU, 0x3ec8b2f4be33fe7dU, 0xbdb418833e94ecdeU,
  0x3e788e9bbea04076U, 0xbe9c1b763ec8b2f9U, 0xbe6b64dbbd3884a5U, 0x3d178d6abe1d8b42U,
  0x3b88be6d3de1bb1aU, 0xbdac99e93d65d7c7U, 0x3e1d4b6d3d5df836U, 0xbe78ea0fbe5666abU,
  0xbe24e2bdbf32b13cU, 0x3debca183f03547fU, 0xbe1f52cc3d8047b6U, 0x3b418e733e35c1bcU,
  0x3e5c61c23dba5749U, 0xbd9dd26c3c7aab3fU, 0x3d8db7a5be801ad1U, 0xbe7182d5bd9c138fU,
  0x3d30498e3e35ff19U, 0x3da0ba20be6bf396U, 0xbdbc4d01bda47c87U, 0xbe76c1ecbe07ee0cU,
  0xbe9e57a5bf0d8590U, 0x3cd927fcbe51e198U, 0xbe429ae43e98dd0eU, 0xbca6b901be22f0ddU,
  0x3d1387ee3e9cf190U, 0xbda06deb3e5d57c7U, 0xbe4e5e593d9fb7a6U, 0x3db272e23e43fcc3U,
  0xbee0334fbfc068f0U, 0xbf9985b5bd41c049U, 0xbee9d9fc3e40cea6U, 0x3fa572793fa0e40aU,
  0x3d0b55f0bd12aca8U, 0xbd0358973e90e6e5U, 0x3dde8e77bc735bfdU, 0xbe37e45dbbedab1aU,
  0xbe2f1ca33e6f8717U, 0xbe54bfc43e22cd40U, 0xbe2fafcfbd005dfcU, 0x3d91b6b23ea53ac3U,
  0x3e08b6a23e1c00beU, 0xbe394aab3e3a7b07U, 0x3d8d656dbe172a02U, 0xbd93846f3e961b78U,
  0x3dd78c023c8f5f7cU, 0xbd9185293cdec15cU, 0xbe796abb3d418a6cU, 0x3d2c3da63ed308deU,
  0xbd88f1643e532b4bU, 0xbd6cd93fbdbb1330U, 0xbdf0fbf7be318852U, 0x3e0f3692bd204d2fU,
  0x3e4449a13d825f4aU, 0xbc6f85343eb919b3U, 0xbddd92623d9a6400U, 0xbe033fad3d912c2cU,
  0x3e7859ad3e751a1dU, 0x3e873debbcf8d91eU, 0x3d37b063be3ada2dU, 0x3e5e8a9b3d2c1a08U,
  0xbbadbbe7bd8514e0U, 0x3daebb05bc8d91beU, 0xbea552d23da145b7U, 0xbda8f339bea865a0U,
  0x3e6376e23eaf0029U, 0x3e7325bebe0df74bU, 0x3d808336be44f887U, 0xbe12dbacbeba87dcU,
  0xbdb8f83b3ed8d941U, 0x3e188593be0a498fU, 0xbe02933f3c8c052aU, 0xbe9698993d8673d0U,
  0x3e17a2ab3eb410e1U, 0x3db4e396bcee267fU, 0x3f15971ebe2d4171U, 0x3cd401733e46b90eU,
  0xbc838a1c3df21ae4U, 0xbdd7fc76bc42945cU, 0xbd8703df3da9140cU, 0x3d9c2505bd43450dU,
  0x3e81a77dbdf43eb0U, 0xbd95adf13e24043fU, 0x3e0839e63c91d4d5U, 0x3e94846fbe3dd99eU,
  0xbc6882023e850775U, 0x3c79cb98be577b4fU, 0xbe3212d03d97a280U, 0xbe5ce5673d621700U,
  0x3d86e5443e4ac7a6U, 0xbce1127dbb86076eU, 0x3d3fe032be75d86fU, 0xbc9d13d1be0e86caU,
  0x3be2a4933cfcf002U, 0xbd70b9d5be2332b5U, 0xbd9b30cabe42f3a5U, 0x3e26de603e34f6c5U,
  0xbdfa61823b88d768U, 0xbcce0b213e957fa5U, 0xbde990cb3e9eb408U, 0xbda492c5be2e6920U,
  0xbd10dfdd3cfe4e7dU, 0xbc8845063e05373fU, 0xbda692743e55b7c7U, 0xbc029b49bdd8fa44U,
  0xbe3e1dd93ecc1110U, 0x3e2d51ce3eecd300U, 0x3e071258bdc228f3U, 0xbcb73c2fbe18e0adU,
  0x3decd9253e1e6f14U, 0xbe0be3983dea1271U, 0xbe9443efbdcc982fU, 0xbdacdb093d4b1e03U,
  0xbdeca50f3e135a3fU, 0x3ed6b7da3e4ed487U, 0xbe73c5bf3cae797dU, 0x3e92c303be9213adU,
  0xbb8f22363d46dd25U, 0xbd8c3f83bd1d50e7U, 0xbd15df953ce3240aU, 0x3d7e08053bacaa5eU,
  0xbd97a8d0bcb0aebbU, 0xbd0ac7ecbd2ba6bdU, 0xbcc845803cef3b5aU, 0xbd15fb113d96a2b8U,
  0x3d55199abd3a1a50U, 0xbe0560b53dc35554U, 0xbeb3fbb9be995644U, 0xbdaac8d13c2c8825U,
  0x3c0ab3ad3ebeedacU, 0x3e07554d3e376813U, 0xbd8c5274bca82bb1U, 0x3e4be173be94772cU,
  0x3da43e7c3e341730U, 0xbe057180bd3697caU, 0xbb57dd82bca99917U, 0x3e465536bd480cd6U,
  0xbd91349fbe6b4697U, 0xbea576193d8c50d9U, 0xbbb16f933e860c0eU, 0xbe59aac2bdebab00U,
  0x3ed65dda3eada5daU, 0xbe233fb3bd0a9900U, 0x3e3b53d03ca3b27aU, 0x3d09eaa83dc762d0U,
  0x3ebc0c573d2d4041U, 0x3d30b7a03b9cfbe6U, 0xbe2416e7bbf47846U, 0x3e9a76d9bd073879U,
  0x3dfd1f763ee085d1U, 0x3ee4f6363eb18755U, 0xbe3835f33e20dffcU, 0x3e7dd8a9bee56191U,
  0xbe0491203e29ade4U, 0x3e0e2bc9bdd79b50U, 0x3a352a2a3d7436b4U, 0x3dfc7a41bdb6160dU,
  0xbde41dad3e012123U, 0x3d8b068d3d0ecb6eU, 0xbe0f7fe8bddfb704U, 0x3d911810be31fdbeU,
  0xbe3f3d08be51d598U, 0xbea28e2c3d5d114cU, 0xbd01edf13e4c0571U, 0xbe4dafb8bdb9c028U,
  0x3ca81c923dcbfc78U, 0x3daef3e93da9febdU, 0xbe7677b33de54dcaU, 0x3e17ea663eeec507U,
  0x3dcb5c22bdbeef78U, 0xbde095d33e14854dU, 0xbdc8b6033e289c27U, 0x3e00b222bde390f3U,
  0x3d35f2ffbdf99c27U, 0x3e4b5b4c3d252e51U, 0x3e4d98b3bc35b657U, 0xbcedc8713d88e6c3U,
  0x3d0b77443ddd2d9aU, 0xbe1f1f9fbd135cf6U, 0xbbfcfa883d64611cU, 0x3d5153653cd9ddabU,
  0x3e24a88b3e1dff67U, 0x3d03da2dbd4dababU, 0x3ed91f87be835cbfU, 0x3e2e16cf3e5923a3U,
  0xbe668155bdacb04aU, 0x3ebb01b93db940c7U, 0x3e30829b3d72d690U, 0x3ed033983c741147U,
  0x3b0a58063d339ae4U, 0x3dfd7d17bebc3513U, 0xbdde066fbcac5105U, 0x3e54bd89bd99f548U,
  0x3c733ebc3dd6ef38U, 0xbb21479dbe1a3a1dU, 0x3db8ba76bd8a75f0U, 0x3e46e1adbdb9573fU,
  0x3c97e49b3dc99941U, 0xbdfe21d03d55b342U, 0xbec1b2febea07efaU, 0x3c7d5d8ebd0939c4U,
  0x3d6b07febdac8139U, 0x3ddfac8ebdbb3525U, 0x3dca3e99bc086b0eU, 0xbe095f4bbcf524f2U,
  0xbcc83ce0bcdb4e74U, 0xbf175ee1be115962U, 0x3d1dcd31bdcb10b7U, 0xbeb1a1e7bc8d2426U,
  0x3db547673e8832bcU, 0x3e8fd05d3df1b905U, 0x3f117e7f3e016c36U, 0x3e09fd6dbe72bb36U,
  0x3e7c0f5e3befb9fcU, 0x3d5c345ebda93b8fU, 0xbdd0866f3ee59fd0U, 0xbd568c08be8354e0U,
  0xbe56062f3e30e70fU, 0x3eb770b93c7ee9f0U, 0x3d8e624c3e6d63aaU, 0x3e6e41b8be15e063U,
  0xbe299757bced1878U, 0xbcfea3273da4f30bU, 0x3d19ad333e796afdU, 0x3d3df8703dabb4abU,
  0xbeb852033eb5d6b8U, 0x3f0efd263f3ae314U, 0xbad9d3663f0521a7U, 0x3f426a7b3eb28c84U,
  0xbeb37f08bedb707bU, 0x3f473d3abea99022U, 0x3f1372073f28d80cU, 0xbf1404273f648940U,
  0x3f763df4bf12a1cfU, 0x3f48ad833f1c503cU, 0x3f8949b23f4b62b1U, 0x3e3f98563f7ea9aaU,
  0x3e7d1debbecfc1d3U, 0xbe450052bde4ec63U, 0x3eda9c083ee62572U, 0x3f5eea6c3f2daf0cU,
  0x3d6dfb4dbe58cfd4U, 0x3f1b85d63f5ec179U, 0x3f18cc953f54a191U, 0xbeb4992e3eb5785fU,
  0xbeeadad33f0fff89U, 0xbdc839c73f5f2319U, 0x3f05bb493dc4468bU, 0x3f3d0332bec5c663U,
  0xbdf5fd98bdde91d4U, 0x3c23a3903e6413c1U, 0xbd5420043e595177U, 0xbe80c40dbe588b2eU,
  0xbe6c03803e0ddc9fU, 0xbc3f3b8abe821a5dU, 0x3c652dc23dd08bb8U, 0x3deaf041bdc73e9aU,
  0xbdc2d233be11170bU, 0xbe1053fdbe24462aU, 0xbe83a416be2b7e34U, 0x3e6f2503bc1a9f56U,
  0x3c351abfbe88c95eU, 0xbdebad243e1cb358U, 0xbc04b4c03e75412cU, 0xbe4ce085bd56cb31U,
  0xbe1a88ad3e2d4001U, 0x3e0080c0be761a15U, 0xbe4b9d90be89116aU, 0x3d723722be6d7477U,
  0xbe56b9c93e28c5c8U, 0x3e59e68ebe7a8023U, 0xbe8371293de440afU, 0xbd8517223e7cd693U,
  0x3dc716c1be16e808U, 0x3c815ff9be115ad6U, 0x3e576b64bd8633c2U, 0x3d26e0713de90feeU,
  0xbe627e193e6c41bdU, 0x3e85926cbe5ee057U, 0xbd2fa35b3e33582fU, 0x3e36a39f3da4aeabU,
  0xbdaeb3b83e60185eU, 0x3e98292a3db4d09aU, 0x3bb84706bdb3bca7U, 0x3db4eb2f3dc28ed0U,
  0x3d88e97d3deefe16U, 0x3e8ed82bbdcc8b88U, 0x3d2b46a43d50db82U, 0xbe05496c3e782961U,
  0x3e877e053e0ebc79U, 0x3d9aef9bbb228861U, 0x3e286ce43e0f21ceU, 0xbdf96747bca2e9aaU,
  0x3d3ade80bdf792f3U, 0xbe6ee3afbd1ef12eU, 0x3dd9123bbdcddf9aU, 0xbe0a7a8ebdfb1191U,
  0x3dd7fcfb3dba80a3U, 0x3e735e9cbdf2677aU, 0xbdea3b89bccd2351U, 0x3e73e5463e6bf772U,
  0x3e5b5264be3e4a80U, 0x3e911a27bd6d8051U, 0xbc8822823e6d6fa6U, 0xbe6c5d7c3e5b2b8bU,
  0xbd57dee6be2be2b9U, 0x3e18fbef3dac39eaU, 0xbc8702edbe4e5e04U, 0x3d95bd0f3e88ef65U,
  0x3e57552cbcafa0e6U, 0x3d55a57d3e7120e9U, 0x3e5b9398be085477U, 0x3e73fd7b3e487f66U,
  0xbcc7b941be236c27U, 0xbe744128be482a8dU, 0x3e775362be38a457U, 0xbd0f46343e82bd0cU,
  0xbe15ae28be7c5211U, 0xbcbd73883d381293U, 0x3e950f9abe5bed7bU, 0xbe40d965bde4175fU,
  0x3c99a2083e4ea13aU, 0xbd6b2f2b3dcea67aU, 0x3dfe42c1be239cfbU, 0x3dc256f4be85e8e0U,
  0x3d814ec33e19440fU, 0x3c8550db3e307921U, 0x3e6f72623e626c08U, 0x3bf0198d3e3ef35bU,
  0x3e70d9f13e882be8U, 0x3d1b7842bdc5cae4U, 0xbe4a3ed23e88fd75U, 0xbe8931e5be13678aU,
  0xbe836c17bcd8250dU, 0x3e85f9eebe2784c7U, 0xbe60a42c3dcfaac9U, 0x3cbeb0cd3e57ead2U,
  0xbdba874dbdf124f2U, 0xbcc90f15bd0b7ca3U, 0xbd0bafe1be52e8e7U, 0x3dd195553dbbea58U,
  0xbe5e8e2bbd63789cU, 0x3d869259be5bcabeU, 0x3d9b66143e68636bU, 0xbe3fbc14bda702e5U,
  0x3e61c7e53de55aa5U, 0x3ddc1887bc911182U, 0xbd9628dbbda2c4bcU, 0x3c8e593a3d5a69a9U,
  0x3e46c0fc3de4b96fU, 0x3dd17c3cbd09d2afU, 0xbdc9bdac3d2fdb18U, 0xbe2ae8dabd3daa05U,
  0xbcd7e789bd4485b3U, 0x3c795e79be2162beU, 0xbe667f533e6ab09aU, 0x3d2cd40e3e3cd4d1U,
  0xbceacf23bd928efbU, 0xbe1f0ed03e0eb158U, 0x3d6bdd53be05eec0U, 0xbe0d4937be2c2b75U,
  0x3e7e44c53e18d09cU, 0xbe7e430a3c88169eU, 0xbd01fad1be053e55U, 0x3dbb9571be8cc1b4U,
  0xbe261728be08be80U, 0xbe5d76ebbe3ceb8bU, 0x3e6434ea3d8535dcU, 0x3df91da43dad254eU,
  0xbe43475a3e553195U, 0x3e5761dd3e4c1892U, 0xbe7853fc3ded4423U, 0x3e1786083db097eeU,
  0xbe8193503e905067U, 0xbe0d89813c819964U, 0x3e7a7efa3d9b75d3U, 0x3ddbda9a3dd47df4U,
  0x3e19d4e43dc52055U, 0x3e7d14d4be2810c4U, 0x3e0c8dbd3dbdf7a0U, 0xbd1ff7de3d517f82U,
  0xbdf61205be50519fU, 0xbe3bc09ebd3ed550U, 0x3dc7fdcf3e0b05f7U, 0xbe55a1b13d5100f0U,
  0x3cc9fd53bdb5fee7U, 0x3d472641be111eeaU, 0xbd8041adbe7ade65U, 0x3d9e88d43df35e46U,
  0xbdbde39abe398028U, 0x3e5a08c63dd93adaU, 0x3d9ad789bdc6c85cU, 0xbe012bf53d39500cU,
  0xbde9fba93cfd6eb0U, 0x3e25b6e23e7ca584U, 0xbe247e06be545680U, 0x3e0b5893bc9ac7b6U,
  0xbe48c7d8bd3f96f4U, 0xbe5cbb263b3c4cffU, 0x3ded351c3e3ae75bU, 0xbe91d9f23e806a19U,
  0xbc0d8f5c3dca12bbU, 0x3e62896fbc3247e1U, 0xbe9305b4be46a2cdU, 0x3df89c7c3e752e18U,
  0xbe4e53b5be1ee19bU, 0xbe148669bce0f69eU, 0xbe8ec006bd9ef03aU, 0xbe4432b13dc349ceU,
  0xbe9376efbe5d299fU, 0xbe8240e1bdf2efb7U, 0x3da22151bd0ade42U, 0x3e3083c0be86cb87U,
  0x3ded3ae23e3de8eaU, 0xbd3171093d27079cU, 0x3e69eea8be8625ffU, 0xbde46d16be5922bbU,
  0x3e2ce12b3e87e192U, 0xbdad752fbd9396ffU, 0x3e90a5a9be1a10bcU, 0x3ca3346fbce0d112U,
  0x3c4ac6853e8fa5b5U, 0x3d48e0fbbe61da4bU, 0xbe447d5d3e1895b6U, 0x3e3eca473dfd0b11U,
  0x3d5307253dc64fa0U, 0x3e8f81ef3ab2a046U, 0x3dc5a1c13e124b37U, 0x3e6095f5ba63f564U,
  0x3e8145c0be1419e5U, 0x3e102e453dc65f35U, 0x3e87a46fbe24bebcU, 0x3dce061dbd0fb537U,
  0x3d90df003d804ed6U, 0x3e7a57653e310ac5U, 0x3e5c0622be6ad04aU, 0xbd515851bc239ef1U,
  0xbe23abe73e71e1d3U, 0x3e1e836e3e5aa008U, 0x3c83b4a03dda81d8U, 0xbe8699bc3e4a9287U,
  0x3d8623483ce0b29eU, 0xbe6928d7bdfccf13U, 0x3d26fad93dee5530U, 0xbd907714be4caeb7U,
  0x3da7aaeebd0498ceU, 0x3e53a9f33db384bfU, 0xbdecc904bc855b65U, 0xbe43406fbe5fd3dfU,
  0x3e544facbe033722U, 0x3c8792e9be2021dfU, 0xbd98b1ab3d4ba4afU, 0x3e6b6da63e347f9fU,
  0x3e45554cbe9932a8U, 0x3e11bcbc3dd97c93U, 0x3c879b71be3c31b3U, 0x3e7fc2f5be5fbbc8U,
  0xbdbf9ccb3e5d27a3U, 0xbca78e353db91752U, 0xbc74054d3e816b09U, 0x3e0ffbeabd666d21U,
  0x3e54c2bd3e29d762U, 0xbe88b93dbe8b1f52U, 0xbdafa16a3ba6676eU, 0x3e82cee53bb13a76U,
  0x3cdee3e93c1893f9U, 0x3dde1b5b3e857690U, 0xbe7c0d7f3e4a0ddcU, 0xbe8c0aafbdf80617U,
  0x3dda3cf53daf182aU, 0x3e0d6f35bcd5b0daU, 0xbe393a47bd675ce4U, 0xbd78787ebe721dc3U,
  0x3c55ec313d9c31d8U, 0xbe289f1bbe6b40e3U, 0x3e76a89a3c4bd140U, 0xbe805e4ebe71d772U,
  0xbc405e563e854734U, 0x3d5d0c113ac15229U, 0xbe16bbedbcfd14d2U, 0x3e731678be427b10U,
  0x3b528f8c3e2611fbU, 0xbd2043ad3d8ff287U, 0x3d190a51be292df9U, 0xbdafe833bd8653eeU,
  0xbe26dd943df43fdfU, 0xbe136b593dfdec01U, 0x3d46fe983e497575U, 0x3e14e0edbe4057d0U,
  0x3e592d25be250f12U, 0xbe071b183e730384U, 0x3e890ffbbc313760U, 0x3db007e53e8d993bU,
  0x3db474da3e0c548dU, 0xbe0ea1b53da76fcbU, 0x3e5653043e8323f4U, 0x3d61a16cbd59fdd1U,
  0x3e47ba3ebe00f2e4U, 0xbdf4a939be642893U, 0x3db09d9ebca2f2dbU, 0xbe0971f33e11ba5aU,
  0x3e1d0b1e3de6e747U, 0xbe68eea0be93c809U, 0x3e5da2c1bdad353bU, 0xbe2ac19dbe4f0455U,
  0x3e8264f73e4028eeU, 0x3e3772503e969c6cU, 0x3d20a46bbd980855U, 0x3de29b8dbd852292U,
  0x3e99596ebd68ecd8U, 0xbde71568be7a9202U, 0xbde5edefbe792908U, 0xbe194dd3bd42898cU,
  0x3d3fed1c3e761a4fU, 0x3e85b8d3bc39e057U, 0x3e03240a3e973980U, 0x3dba134f3e19ef42U,
  0x3e69a1ae3e9891ddU, 0x3e8d5a2cbe1efc2eU, 0xbe33ccf93c14de21U, 0xbe0025463db4491eU,
  0xbe67df84be30af85U, 0x3deed8333e1d2821U, 0x3e44c9a83dc1434bU, 0xbe69e7c73d8a7140U,
  0xbe4629e9be56b9c5U, 0x3e4510b9bd7898dcU, 0x3c4b66d23e56d892U, 0xbcc8d2af3d974a2cU,
  0xbe13ff25be595b06U, 0x3dee95d13e0fe01bU, 0x3e496dcdbe00f1dcU, 0xbddfb347bd5f774aU,
  0x3e8a3af8bd182a90U, 0xbba12b93be21e91eU, 0xbdeb87c2bdead206U, 0xbe5d3c87be80af62U,
  0x3e31ec2c3cd55ae7U, 0x3cc99300bdd29e51U, 0x3d3e3aaa3e67aae1U, 0x3dd24c3abd544b8aU,
  0x3e0987b1be042be3U, 0x3d50a1d8bc589c19U, 0x3d3cc741bd9d4b18U, 0xbe1e49ae3e0bb488U,
  0xbd7f834bbe7defb4U, 0xbe24ca40bddbfbf8U, 0xbb8325b33dae0dbdU, 0x3e80ab153d4f1794U,
  0xbdb17981bdf41120U, 0xbe46d5ba3e70dbbdU, 0x3d83f8563e79608cU, 0x3e93f96bbd91111eU,
  0xbe0cdecbbe4569ffU, 0x3d423897bdabcf76U, 0xbe1891133c55b718U, 0x3e01f1b2bcebfc0aU,
  0x3dfaf0d63e9455faU, 0xbdbf9249be75d303U, 0xbe2901b6bd9d41e4U, 0x3e86131bbe131dcbU,
  0xbdf8cc553e7c8e75U, 0x3e789b343e83c275U, 0x3e92a9643e73f5f8U, 0x3e2dc3e73e573e82U,
  0xbe68b3573e49797aU, 0xbd4216283d2fc8aaU, 0x3e3b7c113e6f265fU, 0xbdb270543e3433a1U,
  0xbe19fd57be98b0c9U, 0x3db478aabe2063d3U, 0xbd37b36e3e3606fcU, 0xbdad50e53e9220cdU,
  0x3dec7f79bdfb2966U, 0x3d8925aa3c60c529U, 0xbe394521be363a96U, 0x3ddad1903e5149c3U,
  0x3e84f8143dc7d9dfU, 0x3dc8c5e4bce2d886U, 0xbd442f5abe33d4c7U, 0x3e3a36ca3d916399U,
  0x3e50cd4abdfff96fU, 0x3cbe12ffbdd847b5U, 0x3db566e4bde94443U, 0xbd97c98ebd51756dU,
  0xbe522398be221234U, 0x3e37e0483e64004fU, 0xbd43b1da3e4a7fd7U, 0xbe8d27f8bc5447daU,
  0xbd7e851abe26f1c5U, 0x3e44e0873e3c6318U, 0xbe323cc9bd70e44dU, 0xbe32b88fbe45efe3U,
  0xbe24e6cfbe39ee36U, 0x3d98ca113d104bcaU, 0x3db0a710bdb522f1U, 0x3e25366eba212d16U,
  0xbe159323be770274U, 0x3dc9574ebdd0d561U, 0xbe829500be777a1fU, 0x3dce80dbbe39a594U,
  0xbcffaa563e680ef0U, 0x3c897348bd999d3fU, 0x3e94e3153e6e47a9U, 0xbe744a793daff900U,
  0xbe70ea6d3b6a24b5U, 0x3e1d67933dae924bU, 0xbe9724c83e1128a4U, 0xbe5d09b43dc9aca4U,
  0xbdaefc233ce278dcU, 0x3e123684bdbda449U, 0xbe6981583e3b4af2U, 0xbe79ece43de38fb7U,
  0xbd14c9d03d97edeeU, 0x3952bc76be55598fU, 0xbcb135103e5ffe24U, 0xbe93cb3fbe743fe0U,
  0x3c10b8f63e5413faU, 0x3ce04fdbbe6c9b3dU, 0x3ca7866e3db1e0e5U, 0x3e6681243e1a5ecfU,
  0x3dfee3073e0dba41U, 0x3e2cd3613daa124bU, 0x3db92bdb3c94ee98U, 0xbe8300f73e04289eU,
  0xbc2242063b342fceU, 0xbcdb47c5be28270dU, 0x3e690b76be37f74aU, 0xbe4948ab3e71b536U,
  0x3e634f913c067583U, 0xbd833ff3be04a847U, 0xbe4fa3253d1fbdffU, 0xbe44fb2bbdba519cU,
  0xbc628ef8be0ed5e3U, 0xbe2252633e5f04b1U, 0x3e74e8a93d9d66d7U, 0x3d996a4cbe184f37U,
  0x3dcb888d3d9719b2U, 0x3e1c0d50be88830eU, 0xbe014012bd52a3ebU, 0xbe256740be100f6dU,
  0x3e34d4bb3e920541U, 0x3e04ef843e2633e1U, 0x3e2ba9473e7217deU, 0x3dc9c5ddbdc6c8daU,
  0x3dd6089bbddd61e5U, 0x3df5d149be186534U, 0x3bb41302be83111bU, 0x3c3ca3183dad5d6bU,
  0x3e222c9abe7458c3U, 0x3e0408c33deb6943U, 0x3dd4be6dbdc39001U, 0xbe3b611ebdfc96d2U,
  0xbe089f1d3cfdcecbU, 0x3e62f9423e201851U, 0x3e601f723e30c3a7U, 0xbc89138e3e96122cU,
  0xbe4ab1f3bbbc810aU, 0x3e7818f33dfa1e41U, 0xbe50f9d6bd2e0e5bU, 0xbe64e897bdb9b3beU,
  0xbe13a58b3e3393cdU, 0x3e166fd63e86f0a5U, 0x3e42060e3e8c71b4U, 0x3e376943be5ba7baU,
  0x3d9a7c89bbb16812U, 0x3ea3d1a63e44d6f5U, 0xbbae3164be2a7a6dU, 0xbd87e91ebabc3f01U,
  0x3e5f6a763e012e81U, 0x3e09f45bbe813a7cU, 0xbd622dc63e9e47bfU, 0x3e5b4565bd5ca495U,
  0x3b98d822be1684e7U, 0xbd04fd013d9a9d6fU, 0x3e930b4dbd9814cfU, 0xba55e5d8be70b894U,
  0xbcd84c29be2cb7d2U, 0xbdc9c1b4bd8c22d9U, 0x3cc25842bd510023U, 0xbead16eb3de2625fU,
  0x3e8cf0bcbe0ecde0U, 0xbdebf6013e973f61U, 0xbe5da64f3ce917aaU, 0x3d648986be5c8c4bU,
  0x3e57811a39358424U, 0xbd33e362be5b17feU, 0x3e015dd5bc1ccb4cU, 0xbdc821c13e41e272U,
  0x3c8187673e11d128U, 0xbc1fe8be3e4506daU, 0xbd2eb0613e8c42d0U, 0xbe15645c3def6be1U,
  0xbe2f396e3dcf7fe2U, 0x3e9171b33d60fb45U, 0x3ddb28a63dd1cb56U, 0x3e1c31393d76578eU,
  0xbcd4acad3e4c16cdU, 0xbe37fc72be333526U, 0x3e051bf7bc5bd597U, 0x3e3b5553bcbb6467U,
  0x3c969948bd24e873U, 0x3d92ccc1bd4e69aeU, 0x3dd83326be2dc580U, 0x3d8378b33e1af115U,
  0x3d7b3a3a3d632199U, 0x3daa90263e2cd38cU, 0xbe4830b03e036d97U, 0x3e56686a3e5c6ec7U,
  0xbe1620403e615257U, 0xbced697c3d7541aeU, 0x3d969148be634f84U, 0x3e0739b3be052259U,
  0xbe74eef43e4dfdb0U, 0x3e03c8d53e7db54bU, 0x3e38568bbd5f0004U, 0x3cd4d30cbe05015bU,
  0xbe3fb1e23e31d492U, 0xbe22f9d23d8e06fbU, 0xbe8b2657be5b2944U, 0x3dd0941abe1bd823U,
  0xbe4744c83e3e024dU, 0xbbb3255f3d945bfeU, 0xbe27a21f3c842cf8U, 0xbe70f08fbe0973f3U,
  0xbe8a4ab73dc7420dU, 0x3cdbbc39be4350ffU, 0x3d8ce13dbe493eabU, 0xbe5c26743e35a76cU,
  0x3e15b696bcea0e48U, 0x3e50b7163e14cbc2U, 0x3e47fca6be59751eU, 0x3df59cbd3ce7a60bU,
  0x3c86f0373bf705baU, 0xbba64b19be5dc935U, 0x3e4042cbbd00e95aU, 0xbe3ad9a23d9e55beU,
  0xbdc0247cbde9b706U, 0xbdb0da97be2430d5U, 0xbdeba48c3d21f685U, 0xbe353596be3cc302U,
  0xbe3b153f3e205abcU, 0x3db632ccbe753b30U, 0x3c3d63013d16788aU, 0x3e7c2a18bdd1bd2fU,
  0x3db667d53e671301U, 0x3df1ca03bd3fc059U, 0xbdb527493da7c820U, 0xbe877f83bd450ca1U,
  0xbdc65a7dbe54c0e5U, 0xbe62f99cbe5bdf24U, 0xbe24e397bd96be78U, 0x3e744b81be1a8823U,
  0x3e3fe1c03e3f5c13U, 0xbe6137973e3ac5c4U, 0xbe2135843e76f538U, 0x3d6e2edc3e41de16U,
  0xbe129baf3c913e0dU, 0x3ddfaa7dbe1e3a4fU, 0x3dcdd84e3cfcec78U, 0xbe41c315bdcc560bU,
  0xbd8a21b4be97eecaU, 0xbc5573cc3d8548d3U, 0xbdc9a7063e877c45U, 0xbe2f9c983e2e6c17U,
  0xbe3897103e1d77a2U, 0x3e412006bdd671e1U, 0x3cff6e453d6259a4U, 0xbd07ba17bc185ba4U,
  0x3d7f7527bc9d825eU, 0xbe8408f2be48eee8U, 0x3e74c16a3e89ccf1U, 0xbd6d30e1be8668ccU,
  0x3d18514a3a9c46f3U, 0xbd79ce3a3d9c7456U, 0xbe2f23e6be7a06c2U, 0x3e443feabe7398e7U,
  0xbe315ac73da02298U, 0xbe546c3bbe1b5849U, 0xbe033a7b3e64ce5cU, 0x3e11da963e86dfdfU,
  0x3e4c9ff7be87c40bU, 0xbe6dca7abe5fe9c5U, 0xbea19ec23e8ea878U, 0xbe3fcbecbe8151e6U,
  0x3e5342f53cf3b1deU, 0xbe004d55be87962aU, 0xbe2054fa3e5f1889U, 0x3db76cc33db150e4U,
  0x3bd09d1e3e4f9fefU, 0x3e650806be8a30ffU, 0xbe38861cbdf70d25U, 0xbe756500be12be98U,
  0x3e214f153df29362U, 0x3d2124bb3d67998aU, 0xbcaeeafc3cc5da8cU, 0xbe91cafcbdfb1283U,
  0xbcbd31433cae01c9U, 0x3e2fcc5e3c7437aeU, 0xbe9113c53db45b69U, 0xbd2634e43e5238fdU,
  0xbe41951d3e045d92U, 0x3e1b3b2d3d04696dU, 0xbe78d9b23e7a46ecU, 0xbe5d62113d0a7caaU,
  0xbe3290ea3e2e6970U, 0x3e3fdec93e5fe582U, 0xbe6cdcd23d80d523U, 0xbd8c0d5e3d84c196U,
  0xbd9246b23e297089U, 0x3e817ef6be79b745U, 0xbe2f88e53e6eeab2U, 0xbd6864873e7dc515U,
  0xbc1fba26bb922450U, 0x3da0d8e93e34ed4dU, 0x3e0c7d8a3e3fdb05U, 0xbd90d9e23e3295a6U,
  0x3df27946bdc9ee25U, 0x3dacb5a73d7b7f24U, 0x3b8be71e3e76ff16U, 0x3d1e68c2be7e4769U,
  0x3ce0c96ebe63d0d1U, 0xbe8c3db03d05938dU, 0xbe42ebcdbe3d2cb5U, 0x3d472e283e52cf0dU,
  0xbe3a9616be4ce495U, 0xbe1183b4be6eede5U, 0xbe6c7847be3584f2U, 0xbe412ea1be026537U,
  0x3e67d3953e47a5b0U, 0x3de98b0d3df43522U, 0x3e1926ca3e929925U, 0xbe8e2080bd91f635U,
  0x3ddbd5f5be633577U, 0xbdbe9c913d0032a8U, 0xbe3390af3e7b11bcU, 0xbd499bd1be0376f1U,
  0xbd3ec2283e103a9fU, 0x3e1b227f3e287515U, 0x3e2279db3e8fd5deU, 0xbe025ae83c032dd3U,
  0x3d18b651bbcd6c28U, 0x3d882ef93e075c86U, 0xbe5651e7bdec6346U, 0xbca81f333e154da9U,
  0xbe2f9a3bbe1ec800U, 0xbb6347ad3e7dfdfbU, 0xbd8013763be6ceb4U, 0x3e1d60603d47e1b6U,
  0xbe05a68abe5b922eU, 0x3783d6d9be271633U, 0xbe0fe93f3e7163efU, 0x3e14624dbe51071eU,
  0xbe998a723e20c416U, 0x3d8128b9bdd11152U, 0x3bde8c833e41536dU, 0xbcb24216be6d7193U,
  0x3e16c615be54740fU, 0xbe684b823d8aa3e7U, 0x3e55f1843e373b65U, 0xbdd8fcf2bcba5c99U,
  0xbdc859183d884624U, 0x3e08a4dfbe789542U, 0xbe33fe693e5526a0U, 0x3e91e8683dc0a993U,
  0xbe6daae13e5ac866U, 0x3e2d69f93df1f9e3U, 0xbdff276f3e75c990U, 0xbc521807bd4a6334U,
  0x3e8577ccbe32df6eU, 0x3a16ea00be6eaa5fU, 0x3def85a83e3b9d20U, 0x3d8651593dba874aU,
  0xbe8b7be23e2a778dU, 0xbd0f9330bd5b9a2dU, 0xbb2a21f3be726a7fU, 0xbce1b087bcf36a33U,
  0xbe8d9629be829da2U, 0x3e4562a83e765450U, 0xbde74f2abe3f4935U, 0xbd0ef93d3ca0c099U,
  0x3d95f48c3e96def9U, 0xbe20d03fbe09a558U, 0x3e27216d3d18272bU, 0x3cebfd7b3e723777U,
  0x3e0aae733df5b6bbU, 0x3dc7d84e3ce21e86U, 0x3c4ddd1a3cb11077U, 0xbbc31e93be5d43eaU,
  0xbe1876a1bd960c04U, 0xbe4311cabe68f417U, 0x3e463920be20e547U, 0x3e76f2ffbdb6a682U,
  0x3e6b93afbe747512U, 0x3d8f899c3e16f17eU, 0x3e2d2471be27a8faU, 0x3e7a8d01bda12f2fU,
  0x3d48e8953e08a42fU, 0xbe441ab6bd9590dcU, 0xbdd8d70bbe731821U, 0x3d536ea4be311639U,
  0x3e96bbfd3dacd71dU, 0xbe128f7b3db3be18U, 0x3e62fd2a3ce12edcU, 0xbdbe1e553e8a1a80U,
  0x3d899d293e7efe40U, 0xbe09641f3e7db9b1U, 0x3e069957be0b32f2U, 0xbd6063843d336e0fU,
  0x3dfd5f44be80384aU, 0xbcb961e1be1666afU, 0x3dcf20113e09fd23U, 0x3d97f91b3d04cd90U,
  0x3e389efd3e7a1c47U, 0xbdb3e22dbdddcc3eU, 0xbdd35ed6bdce906eU, 0x3e4d49a1be1607deU,
  0xbbdd27bcbe01b7d7U, 0x3e12b1003e2f2ef6U, 0x3e14bf8e3eaa32e8U, 0x3eb1978e3e87eba8U,
  0xbcfded243e33f341U, 0x3dc67e943e4933e4U, 0xbe431075be8ed62aU, 0xbe2ed3a0be63e082U,
  0xbe7ccd10bdd22184U, 0x3e1138253db8fc70U, 0xbe52f1c4be4c4921U, 0x3e5f0f783a24f49fU,
  0x3e75fc213e356d0fU, 0x3e2c96a5be4132a4U, 0x3d1a5d5cbd9b1607U, 0xbe2a436fbe86c97bU,
  0x3e2ca48ebe973432U, 0xbe1289bdbe79be79U, 0xbe5d7910be300e09U, 0xbd690022bcd7929aU,
  0x3ce0106cbe92ccf1U, 0x3e26bc123e2dfa54U, 0xbe882b513cbddcfdU, 0x3d394ee8bdeeab1fU,
  0x3dd2e7a73e611260U, 0x3de024a6be5e5675U, 0xbd263ef9be97f27eU, 0x3dad5d42bc6b8be0U,
  0x3e53cf703e28299dU, 0xbd7a41cf3e42b24eU, 0x3df5b9e6be30d3f7U, 0x3d0cd1febe43c3e6U,
  0x3d1878573e8155e0U, 0xbe42c33abe07fd15U, 0xbe5d6dd23e888be9U, 0xbd1b062fbda41269U,
  0x3e873c71be3a72bbU, 0xbde15cd83df36840U, 0xbd45fa51be10f782U, 0x3d204be23e20cdedU,
  0x3d29b60abd13b3b4U, 0xbd8164ebbdb92ad9U, 0x3c7151cabe59a48fU, 0x3ca5f4c13e89e130U,
  0x3d6191fe3dff6758U, 0xbda99847be2203cbU, 0x3e96c66f3b68a412U, 0x3e7182683c3cca71U,
  0x3e9778f13e0a4d2eU, 0x3e585ebdbd896f12U, 0x3e83b5533d3f44cfU, 0xbcdd826fbd01e341U,
  0xbdba03f53e2ace85U, 0x3e0c0c8cbd87655eU, 0x3df28cbabe311560U, 0x3d49bb38bdf47481U,
  0x3ce36fbd3e9234abU, 0xbc9964023d52153dU, 0x3de72f20be215cedU, 0x3d13409e3e5315e0U,
  0x3e35c47e3da70b10U, 0xbe35fa883e9c538cU, 0xbe12c2cd3e2628daU, 0x3d8af2b9be2296c9U,
  0x3dd63ea2be67c1a9U, 0x3e970671bd831f11U, 0xbe525a0abc2547eaU, 0x3db964eebe058c16U,
  0xbdff8927bdd08a60U, 0xbc910125be3db1a0U, 0x3d0b05203dea17e9U, 0x3db1556d3db07fa5U,
  0xbe38ed793e8b67eeU, 0x3ea5df003d9b9cfaU, 0xbcc2495a3eab2062U, 0x3e72225e3ea4c748U,
  0xbe684b5b3e49bdcdU, 0x3e618d313d951c0fU, 0x3e0bd6693dd1b0faU, 0xbe748dafbe1baaa7U,
  0xbd6444cebdabccb7U, 0xbe5b3804be49aeddU, 0xbe95eec13e5ecef1U, 0x3e77c68fbdfb5a26U,
  0xbe5a73a5bde83920U, 0x3dd084523da75787U, 0x3d929aa53e0b0fbdU, 0x3e6ecf6abda2e72eU,
  0xbe8eb8ee3db1271aU, 0x3d9abbd33dbf1418U, 0xbe3abfe6be3a4b59U, 0x3e755a113dcaccd2U,
  0x3d12f7353d3dabe9U, 0xbccf85b0be63c0f8U, 0xbdaee84b3e5954efU, 0xbe8c0e1abe2cad08U,
  0xbe3216af3dfe064cU, 0x3daede06bda30d88U, 0xbe05483f3c9f0193U, 0x3d6005abbdb39974U,
  0x3c9624bbbc91b1abU, 0x3a42bc633c965f63U, 0x3c9be31cbca26a60U, 0x3c843d60bcaeac37U,
  0x3bb37e08bc8f942fU, 0x3c98cac83c9cd7daU, 0x3c926ed33c9b4ea1U, 0xbce02ef43c084899U,
  0x3b80e637bc90bc1bU, 0xbc4d650b3d79771aU, 0x3c8735d0bc9cb1a3U, 0x3c98b39f3c4f7af4U,
  0x3c76fd963c1d9c61U, 0x3dcfe6b2bb83ce5bU, 0x3cce06efbc36b379U, 0xbc9c9bdb3dbd42fdU,
  0xbe35a9c03e88ad68U, 0x3ee7d3e8be518daaU, 0xbc7d78b7be8c5a3aU, 0x3e490466be0f4c40U,
  0xbcc8035f3ee50fcdU, 0xbdf0a6e1be44a490U, 0x3e6422b1bdbcabbaU, 0x3d70343bbe071e36U,
  0xbeafe2423ee19155U, 0xbea77da1be4933f6U, 0x3e5824ee3ea8f359U, 0xbe882c4c3eac23aaU,
  0xbe64b3cfbe080075U, 0x3ec117e8bdb01538U, 0xbe63d0fb3d7d75b4U, 0x3e5fbe3cbbc8a42aU,
  0x3e92c4c33e379e71U, 0xbe7d3b813e8cc41fU, 0x3e908bbfbe85f56eU, 0x3d81556cbcf244deU,
  0xbd959a3bbe08dfc2U, 0x3ecc047d3e1e7cccU, 0x3e2bcef93ed46c5bU, 0x3c064d383e0cd5c1U,
  0x3c94fc2ebe0da81eU, 0xbea4c8aabe83d8c0U, 0x3e17eeafbe8b1bb8U, 0x3ed17ccf3def10cbU,
  0x3e8b24893e9caaf1U, 0xbe047b75be365e12U, 0xbed40de43eb4efe2U, 0xbd5a94aebef9ba2fU,
  0xc08e5d86408df901U,
};


ai_handle g_network_weights_table[1 + 2] = {
  AI_HANDLE_PTR(AI_MAGIC_MARKER),
  AI_HANDLE_PTR(s_network_weights_array_u64),
  AI_HANDLE_PTR(AI_MAGIC_MARKER),
};

